/**
  ******************************************************************************
  * @file    network_data.c
  * @author  AST Embedded Analytics Research Platform
  * @date    Wed Jan  5 18:57:48 2022
  * @brief   AI Tool Automatic Code Generator for Embedded NN computing
  ******************************************************************************
  * @attention
  *
  * Copyright (c) 2022 STMicroelectronics.
  * All rights reserved.
  *
  * This software component is licensed by ST under Ultimate Liberty license
  * SLA0044, the "License"; You may not use this file except in compliance with
  * the License. You may obtain a copy of the License at:
  *                             www.st.com/SLA0044
  *
  ******************************************************************************
  */
#include "network_data.h"
#include "ai_platform_interface.h"


AI_ALIGNED(32)
const ai_u64 s_network_weights_array_u64[ 3698 ] = {
  0x3eb359c83e2698efU, 0x3f186dc83f233d27U, 0xbdcc84523f3eccd4U, 0x3e41d3843dac3190U,
  0x3f349e5d3e8cab61U, 0xbd87838ebe4ebb2bU, 0x3e1bc020bd115b20U, 0xbf31a85e3ed533c6U,
  0xbe579f5dbedbe596U, 0x3e4c89f7bd500b64U, 0xbf3aa88cbf40f7e0U, 0xbec684f4bf3bf4c0U,
  0x3d2767e3be2a45aeU, 0x3e20db703c32bad5U, 0xbdd0136ebda7fbeaU, 0x3e292db03dbe3e06U,
  0x3ce290eebd93d001U, 0xbe1a790a3c86c7aaU, 0x3e50871e3d8e0928U, 0x3e36e0f13db7f6a7U,
  0xbe1738bc3e06c43dU, 0xbd3001373c9bad53U, 0x3d9637653e45bbeeU, 0xbd63ff64bd773db1U,
  0x3de4fb1cbd9c408aU, 0xbf0ef364bf28a52dU, 0xbf3b8e28bf0c5b36U, 0xbf11c205be8f2e65U,
  0xbe86414dbde28cecU, 0xbe0fe333bdf0190fU, 0xbcceb745be28928aU, 0x3d0ea29d3cc03d4aU,
  0xbd255a173ec1de09U, 0x3ea06b643e24c92dU, 0x3e95deff3e99944dU, 0x3ed6e6853e0c1645U,
  0x3f2a449d3f1ab928U, 0x3c3043f03f3c5d07U, 0xbd80e55d3e262cd7U, 0x3e114225bd010304U,
  0x3e0241193de3989eU, 0x3e2c6547bce4c998U, 0xbd6d0890bd9e4c30U, 0x3d22231c3ddd397aU,
  0x3de1ab463c102440U, 0x3e03fb67bd9ff1d4U, 0xbe2f321b3d350e88U, 0x3c4c4bf03ac7c200U,
  0x3d8046143ce3f2d0U, 0xbb0b84c03d2d27c0U, 0x3f0bf3a43e4ceea7U, 0x3eb95bd03f13472bU,
  0xbe6060d63f6e8e28U, 0x3e91e2243e106069U, 0x3f1949113eb711d7U, 0xbe2b42f6bec066e9U,
  0x3d31243a3d8f7e86U, 0xbf3818f03ecd88e8U, 0xbe9fd669beaba7a3U, 0x3ddb20ebbd23321fU,
  0xbf370189bf25b81bU, 0xbf08807dbf16a0a4U, 0x3f22e320bd63bfa0U, 0x3e859a153ea54430U,
  0xbe37d9b53e532383U, 0x3e85ff2b3f1b1aeeU, 0xbd7d96753cbb338cU, 0x3ee7f7c4bed5291eU,
  0x3de370293e60dcf3U, 0xbf11da5fbd07d28aU, 0x3e1c4bec3f13b90aU, 0xbed1dab5bcbb9dfcU,
  0x3ecbe0e8bf510b8fU, 0xbe68308bbd8997f7U, 0xbf755dccbf1859ecU, 0xbac76cd43edce3d5U,
  0xbe87ea56U, 0x3fb177443eafaa5bU, 0xbddcc1ab3e4d2f17U, 0xbd7cb848be3ea1afU,
  0x3efcb0e63e98e4b2U, 0x3d076784be880135U, 0xbc98bcba3f31d407U, 0xbf2c59c5be813d70U,
  0xbc955fbabed0d203U, 0xbbbdbaa33f8ff5ebU, 0xbf347aeabefe72beU, 0xbc516e2cbf3b059fU,
  0x3c9c13b53f760b86U, 0xbf12a529bf4a0286U, 0xbd23f47cbe758c59U, 0xbd77b62b3e925763U,
  0xbebfd5e9bea53948U, 0xbdbad1263f318827U, 0xbd11c7253f1b8b22U, 0xbec39b803f22e595U,
  0xbc21b3bc3decc661U, 0xbd151d5b3f0892ceU, 0xbf12146ebd1a2dfcU, 0xbbce72623ed0da27U,
  0x3d6e6d2d3efd69b9U, 0xbeb3fce53eb07b9fU, 0xbd1d9f37be52e2f6U, 0x3d8675e63f23afe0U,
  0xbdb9fbc5be94244cU, 0xbccd0bcbbe2bee44U, 0xbd85b7bebf3cec5bU, 0x3ebd3ab3be60f89aU,
  0xbd1912cc3f4de2f6U, 0xbd4798183f35d3f5U, 0xbf4cfb853f52dc19U, 0x3d4392ab3e9c25b0U,
  0x3c90c7fd3f03ca64U, 0xbf474eec3e80e226U, 0xbd775618be0cf588U, 0x3c58e4713e80a1dfU,
  0xbf03bec1bd870639U, 0x3c9d8de7be5545a6U, 0xbc5be677bdb1a1dbU, 0x3e993bbabdbbb643U,
  0xbcb588bfbeff8262U, 0xbd0dd456bf40315fU, 0x3f589453bf08e8cfU, 0x3c7cf0033e89395eU,
  0xbac6d8663fa06951U, 0xbfaf1e533ebf367dU, 0xbd22de693e3a4b0eU, 0xba2a84783f1bdcfcU,
  0xbf80f6d73e836aa0U, 0xbd20af7ebe85ffa4U, 0x3ccf27753e5b9ac4U, 0xbee0dd50be92220bU,
  0xbd948d5abf6ca9fbU, 0xbcb65e943e5551c4U, 0x3eaa38debf80734eU, 0xbd188dc7bf7fc623U,
  0x3c8e0a46be228aa6U, 0x3f3619f4bf7a7de1U, 0xbd52b2f33f03cb44U, 0xbc08b1f73ef0895fU,
  0xbfd7b1823f0803beU, 0x3c8459423ead9267U, 0xbd0df16bbe00ae0bU, 0xbf4fbc353e8f1a42U,
  0xbce538ca3f028822U, 0xbc07d752be8242e4U, 0xbed0ce1e3edf2613U, 0xbc9bc5ccbeaf6434U,
  0xbd267bf3bea613cdU, 0x3e977941bec85574U, 0x3beedb3cbf93dff4U, 0xbc11b085be9df8f2U,
  0x3f3d380cbf89b115U, 0xbe1598d9bdbfc01dU, 0xbe333f42bc026639U, 0xbe0d6081be1c1882U,
  0xbd92b1aebd131196U, 0xbe2aa6253d079aa3U, 0xbe29dfaabdf09130U, 0xbe032a09bd08521cU,
  0xbaa127603d0ba738U, 0xbe08100bbe03878eU, 0xbd5b994cbdb222e2U, 0xbe318d0dbe033a67U,
  0xbe384737be0a9529U, 0xbd191ad0be086857U, 0xbe148c19bdcf1471U, 0xbe07cf74be402976U,
  0xbe3ef983bdb6996bU, 0xbd25bfa2be2b2124U, 0xbe6462adbd9280b0U, 0xbde0ee03be3f8a86U,
  0xbe1cfe33bd76459cU, 0xbdcc91203bd7b91fU, 0xbde2468ebe19d883U, 0xbc9cf65cbe14f6d4U,
  0xbdcaa565be23504fU, 0xbdba1fe0bd68773eU, 0xbe2313bbbdd3955aU, 0xbdb6a9d9be100054U,
  0xbdd040ad3baadff0U, 0xbe426766be2b5ee0U, 0xbd8534dabe1135a2U, 0xbdbda5a93cfabcc2U,
  0xbe354b24bc52c51fU, 0xbe4d0547be1aaf12U, 0xbb71f5a3bd17e961U, 0xbe41f33fbe075022U,
  0xbe154768bded8978U, 0xbe0512373d4d0ca3U, 0xbe3d5818bdd776fbU, 0xbdc81350be05abd3U,
  0xbac20cc63c91e8e4U, 0xbe2ae44ebdf15ca6U, 0xbe38e964be17e67eU, 0xbdf27bbbbdd91971U,
  0xbe37c321bdb84b17U, 0xbe124ff4bc828800U, 0xbd47d8bdbdd9184eU, 0xbda2363dbe204b49U,
  0xbdf668b0bd54321dU, 0xbdf01d61bd29c93dU, 0xbdfb22d93ae13da0U, 0xbe47126f3cb485c1U,
  0xbe464a8cbd578ee9U, 0xbd8d0e8ebcd3c7cfU, 0xbe3bbeabbcdd6166U, 0xbe44016a3bfa6a29U,
  0xbe491c26bd713647U, 0xbdc1dcbdbdaeffefU, 0xbdcd7fcabdfd3077U, 0xbe37f6f1bdf973c3U,
  0xbe3d62c1bdd6837fU, 0xbe1bad61bd5b7d6cU, 0xbe3558febcfa0024U, 0xbe686cb2bd010ba5U,
  0xbe0b081cbdc35abfU, 0xbe4be3cebce4fd66U, 0xbdc2ab23bd8ba254U, 0xbe37df4fbe045b96U,
  0xbc9555113c79ac50U, 0xbe62bb233bdc2c84U, 0xbe44bfcbbdcfabc4U, 0xbe4a9e31bdfc0fd6U,
  0xbe281ae8bcecdd24U, 0xbdc001ebbcc30522U, 0xbe308af0bce9d1b4U, 0xbcd6060d3cc06e22U,
  0x3d9f01db3f22a195U, 0xbbe9a35cbe3cc17fU, 0xbef23a623f035bf6U, 0x3d95a7ea3e8b81c7U,
  0xbd4597b33dc135d3U, 0x3cd950aa3e598f72U, 0x3d33dd1ebf023562U, 0x3c9040e5bc9f53e5U,
  0x3f4f5744bf005f0aU, 0xbcb4c480be0fcaabU, 0xbb122328beb9ad6cU, 0x3f27b4adbd4dbac8U,
  0x3d7c969c3f699c90U, 0x3d8c1c15bebc3a5aU, 0x3e5e87d93f6eec9cU, 0xbcfb08513e965338U,
  0xbb893c173e2dbe73U, 0xbf81e2b93e9beabaU, 0x3d02f6adbb0c6421U, 0x3def2f053ec75620U,
  0xbe537f9ebc39ca1aU, 0x3c8c8fcbbf3962efU, 0x3c3bc42f3e0bb4e9U, 0x3e5bf0e2bf2519d3U,
  0xbd029534bf0492b6U, 0xbd564bf83c367765U, 0x3eaf8e39bedcb85cU, 0xbcd70b013e8d95d9U,
  0x3d803cf33d7503d4U, 0xbcac4e7e3e782543U, 0xbd3cfe513e14933dU, 0x3ba696d83f224a36U,
  0xbfa234dc3e547293U, 0xbc2c0637ba0b503eU, 0xbcd1fb2d3f56ac50U, 0xbf71488cbcdaf8efU,
  0xbbc7a567bf3ba57fU, 0x3d4b0aa03f8a2f0dU, 0xbe3ed228bf54baa4U, 0xbd2aa8efbf615210U,
  0xbcf00b083f013ba2U, 0x3e7c2bd6bf60822aU, 0x3d3f87aabe34a27cU, 0xbda08a673f02cf32U,
  0xbdb1e486be01cb06U, 0xbd456b3a3ea10a25U, 0xbd06ade13f607db9U, 0xbfa4c4823e8d1989U,
  0x3ca22cf13e9eb4e4U, 0x3b6752b53f53f1faU, 0xbf7ea0ad3e98976aU, 0xbd442263be257c70U,
  0xbc3fa3af3ed914f5U, 0xbe930757be7c1c59U, 0xbd3c0ca1bf09dab2U, 0xbc7fd1ae3baa43efU,
  0x3ebe1139bf3523afU, 0x3bbe7f953cbd26b3U, 0xbca7c4b83eaad8fbU, 0x3ba9ec87bc8957b1U,
  0xbc801f623ecf1b7aU, 0x3bdff1004003fb1aU, 0xbfaa768a3ee9f634U, 0xbd3abe953c223c5dU,
  0xbcbb7c5e3fb1471eU, 0xbf8b658d3cc04019U, 0x3d0e546bbecf0047U, 0xbd14acdb3e5170ceU,
  0xbe1b9a85bea1bf89U, 0xbc85a35cbf47651eU, 0x3df11d24bf019cafU, 0x3f132a46bf4fe52dU,
  0xbd524aecbeb79754U, 0x3b154bcc3e52dd8bU, 0xbd9441c6be9446cdU, 0x3d96f3bdbf0c1a77U,
  0x3cbac109bf29b426U, 0x3fb0a5e1bec8f179U, 0xbcbe56393eb58117U, 0x3de2febdbfb41ff4U,
  0x3f66662a3e917f79U, 0x3caa671a3f040ce9U, 0xbbf7ead8bf8d1087U, 0x3e75e95a3ed70dbdU,
  0xbafb9ed73f34b421U, 0x3b81e257be2eb03cU, 0xbee632003f5ab1b5U, 0x3b6063a23f96c434U,
  0xbd028c21bf164e05U, 0xbe6f16693fa0d881U, 0x3d5c6552bf2e882cU, 0xbd1e3034bf2dedf9U,
  0x3fd2cbf1bf49b2b0U, 0x3d494433bdf7e9fbU, 0x3cd0f7f3bef93f33U, 0x3eb50e86bdd492b4U,
  0x3d8a7c21be158a0cU, 0x3cc31a003e767007U, 0xbe4e61d2bd2a0d50U, 0xbd0a0b6abe28de94U,
  0x3b3c3b263e54a1afU, 0xbeef1ec1be364bbdU, 0xbae8c6a53ee4f64cU, 0xbd5b1daabdf8d478U,
  0xbec49a213e9a36d5U, 0xbd7bc5b5bfa30efaU, 0x3d95b1f23eb1f317U, 0x3f508991bf97d9b8U,
  0x3d51cd44bf0c1c99U, 0x3d758b6a3f18bda8U, 0x3e4f518bbefb0e65U, 0x3cdcc89d3d4fa233U,
  0x3a60aad13efdeff2U, 0xbf15fa193c89cfe7U, 0xbc8591d8be3294c4U, 0x3cf789773c909057U,
  0xbe8ce98fbe49b043U, 0x3d41dc4f3dd8177cU, 0x3d2e69893e62b5c7U, 0xbeeabef63d43a6a2U,
  0xbc7596c5bfa13b9aU, 0xbd277adb3eba7b1cU, 0x3f37b51fbf9f2fcfU, 0x3d669186bf31de78U,
  0x3c99b95c3e4fd11cU, 0x3e5fa5babf5276bcU, 0xbd9bcfa13e6db878U, 0xbc8b89883e094a2cU,
  0xbec7335f3e046c1fU, 0xbcdbf3ee3deb4f78U, 0x3d0ed2ddbeba1776U, 0xbd9545613e28a04bU,
  0xbc3f3f983f2e6971U, 0x3d6adfa3bf13d017U, 0xbe07e8a23f235077U, 0x3b8c8abdbf766d98U,
  0xbcc04dd93f9c4228U, 0x3f1eccacbf707c2fU, 0xbd8e1326bf51cb64U, 0x3d2c57583f4c89c7U,
  0x3c3bec3ebf5e131bU, 0x3ad9c194be5dc04cU, 0x3d3697b63f235c42U, 0xbedec45cbe65106dU,
  0xbce7c687bdabeba2U, 0x3db0fd0d3d7c3c82U, 0xbe2b2f36bd8a6f47U, 0xbd0bd9093efde0deU,
  0xbc779d763d4426a7U, 0xbf0785d43ec91895U, 0xbd7fe4b4bf27fe24U, 0xbd5678713f2ba458U,
  0x3ec64c20bf269324U, 0xbcdeee8c3d82da0bU, 0xbb7925a43e2def10U, 0x3e7e80c23e01a154U,
  0xbd78fff33f019df2U, 0xbd8739b3bec9eae4U, 0xbd17a5c93f0a327cU, 0xbd06e90a3f0e3c5dU,
  0xbcb1e7e8bf217822U, 0x3de6528c3ecc5d50U, 0xbe051d893fc6576fU, 0xbdfee5f1bf2d2556U,
  0x3e1e9ba23fa6a6c9U, 0x3c6538cfbf0082a4U, 0x3bb0ede0bca52895U, 0x3f087ad4bf04d063U,
  0x3d8ec5363be2aacdU, 0xbca384debea1ce3fU, 0x3e60829abc97e07bU, 0xbab6258b3e27afd8U,
  0xbd1dd449bf25c2b3U, 0x3e3227ed3e4c6cbfU, 0xbd8499d43ea00c72U, 0xbb2af827bea2e530U,
  0x3c791bfe3eed8957U, 0xbba968bb3f11433aU, 0xbd550530bef2eb64U, 0xbdbcd8053f233f80U,
  0xbd9a00543dd77a74U, 0xbd540999bf182340U, 0x3ee9d9c03e3fa0cbU, 0xbd565dc7bde4114eU,
  0xbc8cacf3bdcab442U, 0x3e69d0d4bd4fe963U, 0xbd65f8e7be7fd1e1U, 0xbd6008123ee57d5fU,
  0xbdc35491be941b6fU, 0xbbc5a882bbb831abU, 0xbda12ab03eee11d6U, 0xbe6e9baebcb92034U,
  0xbcda6d123dea15faU, 0xbcbe158b3e097091U, 0xbed2682c3e296cbbU, 0xbd8bfb393e93391cU,
  0xbcda17e7beccb601U, 0x3f3797b83eac5e79U, 0x3bf27f073dde87a9U, 0xbd913f853cd7fd26U,
  0xbe10d22d3e26278eU, 0x3cad4618bebec1f2U, 0xbcdde7013f3762aeU, 0xbebcd002bed42306U,
  0xbd4c84babee9c46fU, 0xbc89576f3fb3e882U, 0xbf18b54dbf04697cU, 0xbd7bd97dbf16fa54U,
  0xbd24e8f63fd3927bU, 0xbf2ee17abf055b7fU, 0xbd862b6bbefc3c18U, 0x3c950fa5bf02e749U,
  0x3f058f38bef5ddacU, 0xbd7d7557be02df5bU, 0xbc8bf5af3cb60ac7U, 0xbe81c095be4d738cU,
  0x3bc1bebebe670a5aU, 0xbd96ec933f583cebU, 0xbf35f9cabe9b8ee6U, 0xbd90085dbeb61bacU,
  0xbd45bdbf3ff448fbU, 0xbf414affbef0059aU, 0xbe00087dbf42c672U, 0xbc523d1440051e3cU,
  0xbf031022bf34c184U, 0x3d143001bf787b69U, 0x3dac61ca3f022532U, 0x3e0d3146bf6bc3c9U,
  0xbd8080a93ee7214aU, 0xbd294c483e853b8cU, 0xbf2393073eeb3f76U, 0x3cdcc37c3c74d2daU,
  0xbb93e169beb9a4d1U, 0x3e90b2273e41047eU, 0x3c8a03b73e4cf763U, 0x3d9cac73bea3c06bU,
  0x3cdface63e59da44U, 0x3d19b8453f323885U, 0x3cc2b6bebf1b9b34U, 0x3f5295ec3f227b68U,
  0xbcb4f59abfac2d2cU, 0xbb9ca1703e24989fU, 0x3ea0e4b4bfa77cb9U, 0x3cf2a860be949b31U,
  0x3d567beb3ecb669fU, 0xbf0c9ebcbeab62ffU, 0x3bbcde90bf4fcb64U, 0xbd031ba93cabccb3U,
  0xbd6b9564bf3baee3U, 0xbd072f0fbe763583U, 0x3d1844d03da3e239U, 0xbe86ea9abe8d28c6U,
  0x3cb36955be90a3baU, 0x3ccd85bdbe8d5e91U, 0x3f0ada5bbe0ab1e0U, 0x3d0a9d13bf22ec02U,
  0xbd7abc6ebead2591U, 0x3f881f78bf0cfeb5U, 0x3d0997ff3e83abd8U, 0xbca1b638bccb9406U,
  0xbd6560913e9de4deU, 0x3daa7ff8bf04c293U, 0xbd1827b3bd87f698U, 0x3ec32228bf03bacaU,
  0x3d193895bdc68c43U, 0xb9f5dea83d47bd1dU, 0x3e438f7abcd46072U, 0xbd97f9e7be6c749fU,
  0x3d9cd3b7bea7fe75U, 0x3eb138c8bdff77f4U, 0xbd162dcebf374e5fU, 0xbcebb6dfbe0e0fefU,
  0x3f818d70bf303956U, 0xbd95f6063e3385c7U, 0x3cc5cba53e8ec6e6U, 0xbec507013dcacbcbU,
  0x3c949d97be666dfbU, 0x3d34a2d13ecc6e57U, 0x3ccb1fe6be3c592aU, 0x3c735b1abe56adfdU,
  0xbbe6a29abd4e3319U, 0x3f0957eebe87a2f2U, 0x3d1ae28fbd32aea7U, 0x3b8a8c3fbe03f8a9U,
  0x3e5b7f81bda78b94U, 0x3d0025a0bf3c6768U, 0x3bf6aa4fbe238596U, 0x3fd4d231bf4cbdadU,
  0xbd8931edbe54d75bU, 0x3cf03e043f00b0efU, 0x3ea5667fbe96f3caU, 0xbb8a40283e376a13U,
  0xbbedf9e13e126bf1U, 0x3ed5e9d43dd613e9U, 0xbc8f86983d926456U, 0xbbc2f5b0bf321876U,
  0x3f4941693e4ead52U, 0x3d63d2003f267313U, 0x3d8fd2a2bf785f6bU, 0x3e52c2143f199564U,
  0xbe04383abe8af917U, 0xbda2af163f1d8f9aU, 0xbf19417dbe5b7ea3U, 0xbcc7004c3ebb91e3U,
  0xbcc68b41bf0d8e57U, 0xbe9cc1fa3e183143U, 0xbd0729843f1f3467U, 0xbd3da6bebf3b357fU,
  0x3edd77923f2ca157U, 0x3c4f7f383f9588b0U, 0xbd626555bedc3d0fU, 0x3e6d5f723f8cfac1U,
  0xbd6041943f81dc48U, 0xbdb6276ebe86faeaU, 0x3f261ccc3f906e95U, 0xbda478213cf954daU,
  0xbcb6b610be411550U, 0xbe75d38fbdd13f72U, 0xb75022683ea4853cU, 0xba7494aebf654521U,
  0x3e71224f3e9de7c9U, 0xbdaec4ff3da885e5U, 0xbda1f8e6bf6c7462U, 0x3f00f22c3ea66122U,
  0xbcc30381be367da5U, 0xbb6164e3bebb5d31U, 0x3ea7b0f6be00e4daU, 0xbd8bbaa4bcff0332U,
  0xbdc5fb5b3e593d21U, 0xbec5d8cabe1a4282U, 0xbdbe89c03e342258U, 0x3cdf0065bf116a16U,
  0xbe27a3593e7446f5U, 0x3c38ef1ebe832592U, 0x3b16af86be5f350cU, 0x3dc5b721be52dbceU,
  0x3cd23728bf2a4dfaU, 0xbd166cfcbe9774a7U, 0x3e37fc8abefca261U, 0xbce24841bf03f5bfU,
  0xbca7d4613eb1bfd2U, 0xbe23a01cbf17a8b7U, 0xbd744820be91b108U, 0xbe000ac83e3219b7U,
  0xbd8c7593be3317aeU, 0xbde6874e3f4c6e66U, 0x3b82632cbfad696bU, 0xbdfbaff03f432984U,
  0xbd383179bc358b6eU, 0x3d154549bf06bbd5U, 0x3e3ac3e4bb81fee1U, 0xbd682628bee421f3U,
  0xbdfd6ad1be8d3b3fU, 0x3e3cf6eebee745b8U, 0x3d5a5add3e9b92b9U, 0x3d1b56b93d36ce82U,
  0xbc924a1b3e3ab9feU, 0xbbe27cee3eda871bU, 0xbbcba179bf11e32fU, 0x3f026a163ee81145U,
  0xbe123af23e68c720U, 0xbde97473bfa1e283U, 0x3f2f06023dd002c9U, 0xbd2953f83eb5f58cU,
  0xbd42df51bf6eacebU, 0xbce0631e3eb42665U, 0xbda2256ebbaa959bU, 0xbd906492bf00de21U,
  0x3f1feead3d958c4dU, 0xbd8f95a13e884978U, 0xbcfce3d0be560ee8U, 0x3e8af21b3ea16af4U,
  0xbdcd9e903f24ffc7U, 0x3d02f72dbf416f1aU, 0x3f21be8d3f229360U, 0xbda5d9e2beebd93fU,
  0xbddf5e523f14bfa7U, 0xbeac8933bec6173fU, 0xbd74c483bf84ff0dU, 0x3d069e6b3f464789U,
  0x3c18cceabf860d6cU, 0xbd8b49e7bf302079U, 0x3ca66c653e1bdf3aU, 0x3e932d98bf1888ecU,
  0xbe01f0163dd6f20bU, 0xbd0c9a9f3d8ad6acU, 0xbe9a6dfd3dcdcccdU, 0xbdc7d1933f08fafcU,
  0xbdc807c33e9f0873U, 0xbee46a5b3ee37173U, 0xbc5e6b54bebef8f8U, 0xbc911d2b3f634161U,
  0xbf29aa27becf0bcaU, 0xbcd11103bf7cd079U, 0xbd5466bb3f231f73U, 0xbe5a97dcbf76b063U,
  0x3ce4256ebf8ec864U, 0xbd03aced3dbe551fU, 0x3f03597abf88fec6U, 0xbd15c205be450532U,
  0x3c0e2aaa3db7e226U, 0xbe49d511be68e56fU, 0xbdc05b953e450c66U, 0xbd63a3acbe27c2b3U,
  0xbe8c2d6b3ebd5bc9U, 0xbd5dbae13f89ba64U, 0xbd8f7514beaa39f2U, 0xbf1a70fc3f8c44b4U,
  0xbd304e8a3d7af410U, 0x3b85d327bdb9d7c0U, 0xbd7f3f00bc3984b6U, 0x3ac13fc6bf2c2c21U,
  0xbd7e59653df09b73U, 0x3f010f8ebf2c14c5U, 0x3c009fb9bdd9e80bU, 0x39822af43f285563U,
  0xbead0024be2e7749U, 0xbd9e32b43e017166U, 0xbaba37cd3e9ad490U, 0x3d55ab0d3d887560U,
  0xbdd73d183f78f9c7U, 0xbdcd28c3be0f7653U, 0xbf319cbf3f753b8bU, 0xbd1bf8cc3f5a9effU,
  0x3c39d239bf2975f9U, 0xbdb486243f61390eU, 0xbcc04e753e7602e2U, 0xbd06c17bbf0036e4U,
  0x3ed5ead33e67d76bU, 0xbd8ccf203ed3deadU, 0xbdc8676dbd54d6feU, 0x3d412d183ebb72f2U,
  0xbd1b359b3e7239bcU, 0xbd1bca7fbecef063U, 0x3e5b17423e9b1b59U, 0xbd7804aa3f4715f1U,
  0xbda6872fbed882cbU, 0xbeee84d73f52abe7U, 0xbddf27e63ee82660U, 0xbd40d058bf9da4f4U,
  0xbbc350513f09a213U, 0xbd370d903e960bbdU, 0xbd813cbbbeff7c26U, 0x3eb0e8b83ed45a06U,
  0xbdc844503f318a1aU, 0xbd1e6242be1424c0U, 0xbd47fc583f2e29baU, 0xbd85650f3e9b164bU,
  0xbd60ea39bf9c782eU, 0xbc9f71b03ec91f0cU, 0x3d994667be7aa02fU, 0x3d26acd33f60ed1bU,
  0xbeebfe18be9c9f4aU, 0x3d7aae50bf33b784U, 0x3d271bdc3f2c0748U, 0x3cf1a224bf31c2c9U,
  0x3d8093d1bf2f0d42U, 0x3d46138f3dfb1760U, 0x3d914f45bf274c42U, 0xbcbef25b3f20f589U,
  0x3bcabb063d9e7c58U, 0xbea7dabb3f1d5feaU, 0x3dad178d3f27be10U, 0x3df406bebf103c4fU,
  0x3f00d1fe3f34c4aaU, 0x3ce629d8be993568U, 0x3c87344c3ec6f5c4U, 0x3e8b45e4be363c8cU,
  0xbcb5606b3bdd8b78U, 0x3a6d4b003d3db701U, 0x3edb95eabd80a429U, 0x3c5434c3be917d92U,
  0xbd067ea1beedbcabU, 0x3f695abfbeb1d873U, 0x3d8f15cd3eb71a32U, 0xbc503c26bea9f488U,
  0x3ee0c1ef3ea0d11eU, 0x3d0084413eec6bd1U, 0x3d7f2078bfb0a87aU, 0x3f8264623ef88c66U,
  0x3bb4a9e8be6f393cU, 0x3c855b723eb132aaU, 0x3ec8e428be838d13U, 0xbc0ab2f0be6dadc9U,
  0x3d390d78be8a61bfU, 0x3f48ed32be496e49U, 0x3d93d029bebc287eU, 0x3d2bfac4bf3ec8d5U,
  0x3f5da6a4be87f41eU, 0x3d91c61a3e3e3c12U, 0x3d4bddd3bda2b1caU, 0x3eb6406e3e66f6beU,
  0x3c99d506bdb3b287U, 0x3cb1b876bf5f62fdU, 0x3f124a85bd5d65b2U, 0x3da5d6c7bf0b5020U,
  0x3b758fee3e551db1U, 0x3f0ba7d4bef40360U, 0xbbd1830bbddd06b8U, 0x3d408939beaf5ef8U,
  0x3f254577be307b40U, 0x3aa38d97be140373U, 0x3c8a05b6be5562fbU, 0x3ea156e9be6ff258U,
  0x3d45992e3d9293d5U, 0x3d9dff483ec4c975U, 0x3dc59126bd832962U, 0x3ca24eb8bf3dabe3U,
  0x3d27a25b3e734fcdU, 0x3ed1331dbf394689U, 0x3dc5fed8bf2c6a4eU, 0x3d95031bbcfc7f79U,
  0x3e04ad89bf4a1c6dU, 0x3c46396cbf2e04f8U, 0x3c4277553ea55b46U, 0x3ea9b95cbf2eb11eU,
  0x3d374328bf044db7U, 0xbc0e336e3f239c2dU, 0x3ecb75f1bf14a507U, 0xbb9d401bbe3322abU,
  0x3c9f5e7d3f45f330U, 0x3e7010cfbe7cb58aU, 0x3c1eb4c9bf65c9f5U, 0x3daa092f3e7e57e7U,
  0x3ebce499bf41455fU, 0xbe3858c7be03869eU, 0xbcd05e19bdaa05e2U, 0xbe1601debdfb4ebeU,
  0xbe4eab76bda2d565U, 0xbe301404be25808fU, 0xbe520ddd3d052fceU, 0xbd1b8e4bbd90a70fU,
  0xbdb98684be2a512dU, 0xbe2bf75fbe01738dU, 0xbd814918bc20d410U, 0xbe3f577ebda812ceU,
  0xbe0d0f37be278212U, 0xbd8fca7abde1d1bbU, 0xbdb26c1abdc2e935U, 0xbe062245bdddddcdU,
  0xbd8d7e67bde7b16aU, 0xbe5b1e9dbe0f2b22U, 0xbd902ea7be3c78e2U, 0xbd1ec87abe569ad1U,
  0xbd5187e1bd84e33bU, 0xbe4596ea3982ee2eU, 0xbe0f1b54bdbae8d2U, 0xbe50a703bde6cf4bU,
  0xbe2d1755ba89fc60U, 0xbe157226be2628e3U, 0xbe37dbb9bd972b59U, 0xbdbdd2dd3bc80f1dU,
  0xbe3f5f72bdf44c8fU, 0xbe5bdc56be041518U, 0xbe05ba49be092406U, 0xbddeed91bd53227fU,
  0xbe2d9226bd8af165U, 0xbde77016bd90fb94U, 0xbd3c50adbe4c31b6U, 0xbdf97dc9be01bf0dU,
  0xbe18ef72bde55c9cU, 0xbcb5300fbdcaf042U, 0xbddabdacbdd8461bU, 0xbe46b9e2bd066748U,
  0xbe1c1da8bc377e1bU, 0xbe2db73dbe133281U, 0xbd9b9babbc3f6db9U, 0xbdefc978be1197fdU,
  0xbcbba81dbdf8d05bU, 0xbdc51d1dbba74b83U, 0xbe30f766be1efac5U, 0xbe31b76ebcce9db7U,
  0xbd85935dbe14745dU, 0xbe216b17bdead22bU, 0xbcb03626bd09c4adU, 0xbe41b976bc6a5525U,
  0xbe185792be2ed95eU, 0xbe1da412ba7fe6d3U, 0xbe872d26bc92913eU, 0xbdbd033bbe53754fU,
  0xbdc95a92bddf1b89U, 0xbde9a3bdbdcef280U, 0xbd287bc3be48c1f9U, 0xbe2fb9b3bc99b924U,
  0xbdcc462e3c349d55U, 0xbe1ce06fbdc5c669U, 0xbd165a30be215960U, 0xbe0b8a8dbe16049dU,
  0xbd7f1c15be0f4d71U, 0xbda22478be211258U, 0xbda02373be135a02U, 0xbe158e8bbd4d6684U,
  0xbe57f223bd8fd78eU, 0xbdb94293be309319U, 0xbd059a34be07e179U, 0xbe3d5c45bdb1e465U,
  0xbe17ce57be12c989U, 0xbe389e09be1de39bU, 0xbe0f5589bde909b6U, 0xbe07c5dcbc60fcbdU,
  0xbdfbc87bbd55b690U, 0xbd61f7f5be1018b7U, 0xbe1231abbd5a547fU, 0xbcddc5d9bc9e0639U,
  0xbe1bfc8ebc322a04U, 0xbd7c1431bd51955fU, 0xbe092119bdb6a645U, 0xbcf21864be167d00U,
  0xbdae9bb6bdc7798dU, 0xbe46ac9bbe0c07e8U, 0xbcf4858cbe3dae01U, 0xbe6c2c6cbe0357adU,
  0xbe5bf41dbdd2f57eU, 0xbe4f4af9be30448cU, 0xbdde2462bdb9c26fU, 0xbe33eeb6be07795aU,
  0xbdfaa28ebd2e4a01U, 0xbe512948bc488f97U, 0xbe0119bbbe1790ccU, 0xbe22aaa23c867a89U,
  0xbda0a9e8bd619fc3U, 0xbe3f86a8be1a5ebaU, 0xbe2cc156bd153b28U, 0xbe4f4029bd612be8U,
  0xbe5c71b0be13bf48U, 0xbe2af57cbe256d8bU, 0xbe3a49b0bdc577b8U, 0xbdaac935be1c177cU,
  0xbd41affebb96d92aU, 0xbe5e12b7bbedd2ceU, 0xbd71e867bdf42fbdU, 0xbe01aea2be4588cbU,
  0xbe54ba4fbe3c79e2U, 0xbd3a76f5be3ce0b4U, 0xbdbd8959be31740eU, 0xbd8e9ecdbdd68b8eU,
  0xbd2b6844bd0eb2e3U, 0xbd83921d3aa1bc4dU, 0xbd228a0dbdad7eb8U, 0xbe129c7bbe17244bU,
  0xbe1e1528bd835994U, 0xbe496638be4d4247U, 0xbe0539bcbd62bc68U, 0xbdf405d9bd727f9fU,
  0xbd109495be1af334U, 0xbda5ec59be28a58fU, 0xbe22b7f0bc47e195U, 0xbdfd85e9bd873ae9U,
  0xbe4e6012be021028U, 0xbd536be7bdec9bafU, 0xbe5ac0c1bdd68e59U, 0xbe1b0384be1038afU,
  0xbd6bd8f5be42ad78U, 0xbe6b42dcbdb7e32aU, 0xbceb18f9be2f5470U, 0xbe51ae4c3c339726U,
  0xbe5d9d42bdf0c0bbU, 0xbc8d9fa7be735805U, 0xbe54b25cbdbf3793U, 0xbd9a3906bd33f9ffU,
  0xbdbd48adbe3012beU, 0xbe015b33bd37bb9aU, 0xbe5b6b8fbe3d652cU, 0xbc980018be2b78a0U,
  0xbd3cca0cbdbe2653U, 0xbe3ed965bd7701e0U, 0xbdd6d3793d2890a9U, 0xbdd263b3bddf5825U,
  0xbe211d5bbd7a2486U, 0xbddf064abdc37a6aU, 0xbdd65d56bcd9c568U, 0xbe4698c4bd88fff6U,
  0xbdeab21abd75b982U, 0xbd877971bd4d6957U, 0xbe3db593be085777U, 0xbb2c10f0bd71b6cdU,
  0x3ca5ee50be298994U, 0x3dba88da3c53bb38U, 0xbd905493bdb311cdU, 0x3c52bf67beb904d9U,
  0xbd60c3f83d99c2d2U, 0xbbb41d1bbe82dcd8U, 0x3d23a8f9be4773cfU, 0x3e79f130be4415b3U,
  0x3b7b439fbeaf68e9U, 0x3c1c3ef43d1a2b62U, 0x3e906171beabd65cU, 0x3cfd39fbbdfa7265U,
  0x3cd2c52c3f9bc2b7U, 0xbf66fd41bdc41215U, 0xbda9eccdbf028fddU, 0xbbc0a5213e520239U,
  0xbe9cedd0bef50c74U, 0xbd855b7bbebdf258U, 0xbdac9a233e798bedU, 0xbd890b3cbe94ace0U,
  0xbb1c5ef5bd176775U, 0x3d940f9e3e23a916U, 0x3dbd48493cfd3c69U, 0x3b434bdc3b9a1ba0U,
  0x3d06af743efd6f04U, 0xbe42e5ac3d3408d5U, 0x3ce282e5bea47852U, 0x3c7e01493fc131d6U,
  0xbf8a5e99be8249d8U, 0x3d08a0bebf1c56eaU, 0x3cb7fb473ef82ffcU, 0x3d6a51f8bf20728aU,
  0x3b2219e4bf8d77ccU, 0x3ccd982f3f3986d8U, 0x3e856576bf870808U, 0x3d1928babf343228U,
  0x3dc77d603f1ca31eU, 0x3eba92d0bf2cf4e5U, 0x3d3de6733dbf3e3fU, 0x3c8e76733f067130U,
  0xbf16397b3df95672U, 0x3c4099eabe642792U, 0xbda0e1ad3fc1692fU, 0xbf8fd273be96b9afU,
  0x3d30bdb8be2680bfU, 0x3ca0f5a53f1c7389U, 0xbe537d70bdf17d20U, 0xbcc7e8c4bf325204U,
  0xbdb706893f1d4759U, 0xbd3df598bf1eea42U, 0xbcaf3fc5bed13353U, 0x3c1755ed3f2a2070U,
  0x3e107474bf02e4b3U, 0xbd3cb86f3e774d7cU, 0x3cadaba23f7ad2a6U, 0xbf29abd03e2cf43dU,
  0x3bc7f8e0bd4126e6U, 0xbda82ede3fae9b9aU, 0xbf6bdc9c3c5ad534U, 0xbd69df423e935572U,
  0x3bf6d1a53f8357c2U, 0xbf260d963eace002U, 0xbb9d68cebe09637eU, 0xbade0bb23f1b1a73U,
  0xbed67289be126253U, 0xbd59de3fbe1108f0U, 0xbd3b15a03f2a0d56U, 0x3e82eeb8bcf4f647U,
  0xbb1adf6abe28a930U, 0xbd6ae8e23f9b487dU, 0xbf0bd8303bab466eU, 0xbc8994b9bdb9ee57U,
  0xbc78d6533f934625U, 0xbf695928bdaf1560U, 0x3ce3a7d5bf539de6U, 0x3dfc945a3de7f9acU,
  0x3f3a2e34bf4f438aU, 0x3db2bb88be2602d0U, 0xbc1c8b4ebc47b09aU, 0x3e4efbc4bde90f2dU,
  0x3d38fdcebe119320U, 0x3dbc1a393e6aa012U, 0xbd0a6d4abe2cae95U, 0x3daf2051be3d890dU,
  0x3d9a2e173da6cb45U, 0x3ee9eb07bdf85221U, 0x3d5e5341bf001840U, 0x3cc2d374be0465b7U,
  0x3fb5e3f7beffdef1U, 0x3d484f62beeaea59U, 0x3bae59603e8245b3U, 0x3e953d5cbf0af3bcU,
  0x3c643fbcbe6814d5U, 0x3cbd7e3c3f1cd2e3U, 0xbed230cabe4ee130U, 0x3d15b076beb9b8b7U,
  0x3c836dda3f447583U, 0x3cd9b5f8bebcec84U, 0x3bac0bcdbf0846a8U, 0x3d40855b3f24aaf5U,
  0xbdd05a48bf232a35U, 0x3c8bff21bf873dd9U, 0x3cffe03e3e128077U, 0x3ed10187bf6bf812U,
  0x3d933b9dbd0a3228U, 0x3dab3165be2f9da9U, 0xbe0c50813d153caeU, 0x3de06b7abe6d3e8fU,
  0x3d88ef113ee1d909U, 0xbe991ffbbe6305f5U, 0x3e0a7dacbec65b1dU, 0x3cd2bde13f6405eeU,
  0xbb4ded32be972edbU, 0x3c5409b1bf18c4daU, 0x3cd3666f3f3aaa9eU, 0xbe26bcc9bf1e1f84U,
  0x3d238228bf8f6e64U, 0x3ddd7b4c3e59a07eU, 0x3ea01e42bf96e34cU, 0x3d5aa5eb3e37c6b5U,
  0x3d9332033ec777beU, 0xbf016d913e132197U, 0x3b5dde5cbdbb5e6bU, 0xbaffc42f3f0a2a05U,
  0xbe4c0f72be23a3afU, 0x3cbbf433bf576059U, 0x3dc421da3f080632U, 0x3c8ce490bf38d584U,
  0x3d27e72abf4776aaU, 0x3cc104d93eac19b4U, 0xbd79bae9bf50f3e4U, 0x3bce2409bfccaab8U,
  0x3df5dba6be001befU, 0x3dc1908cbfc53cddU, 0x3d9109d73f2cdd31U, 0x3dafce1b3f881d30U,
  0xbf8acfb23f23e66eU, 0x3d93d6053ec5b7deU, 0x3c9317763f6fce70U, 0xbe8e867c3eb3a8deU,
  0x3c9845b2be69f3a6U, 0x3d1394993cc67c90U, 0xbe0360f6bea85f1bU, 0x3cecff9abf465bdcU,
  0xbd4c65bebe038ba9U, 0x3e567c41bf50993aU, 0x3d245bdbbfa4f68fU, 0x3d38c7c3bdb62cabU,
  0x3e3bc0fbbfa73049U, 0xbdea5204bf1ac799U, 0xbdaf55373e6e0226U, 0xbf202abdbf2a8458U,
  0xbd90ab6dbde53e0bU, 0xbc72cb48bed13e4aU, 0x3e23e5cabe09faa3U, 0xbe0617223e9810e8U,
  0xbda66523bf4b66d9U, 0xbdfd11783ea12590U, 0xbdd4f9563f2d1f43U, 0xbdd578393de5f66bU,
  0xbe83b5e23f124c59U, 0xbe1661a73eb4a449U, 0xbdb86af63f160cd1U, 0xbf4f67193eb5bb03U,
  0x3d56aad8bf608f08U, 0xbb5405603e82972dU, 0xbda69d4dbf7393bcU, 0xbcfcb57cbf07999bU,
  0xbd2ab8f7be9e8303U, 0x3f312f6dbee14003U, 0xbd284b133e65f37bU, 0xbdd1ea60bf73066bU,
  0x3ec84ffb3e3137e6U, 0xbd95d5e13fb09e5cU, 0xbd635324be108313U, 0x3d018a1b3fb3b86aU,
  0xbdd1eaad3f7bbd84U, 0xbcf17417be9933a1U, 0xbea4b3163f70eb33U, 0xbd204fe2beafcf72U,
  0xbcdd7394bf481fd5U, 0x3f2b4184beae1d88U, 0xbd1c1b7cbebf9f92U, 0xbd7b48e1bf18932aU,
  0x3f884d53bedfa1a5U, 0xbd8dd0e3bd6c3784U, 0xb7055a10bf02c5faU, 0x3f67bc243de51931U,
  0xbdc4867b3f8387c8U, 0xbcbc2ee1be2c7d32U, 0xbdb8fa753f947bf2U, 0xbc73ae373fa9bb12U,
  0xbe01248dbe81aec8U, 0xbe02e2dd3fa38098U, 0x3cd56bd63e855900U, 0xbc9d66b8bf42d8ccU,
  0x3f1ce3c53e2b0a0eU, 0x3c28ec4b3da3062bU, 0xbd038c70bf25df43U, 0x3f39be97bd13880aU,
  0xbd26d1f1be697fc2U, 0x3c5694593cfc211dU, 0x3f184a9cbe755482U, 0xbd1dccae3e2ee318U,
  0xbddc57f33ede98dcU, 0xbec51c2e3e41cc07U, 0xbc66ad693f1e16e1U, 0xbdd5a3bcbe91524cU,
  0xbe5851cc3f1fff04U, 0xbdb88ebfbeae956dU, 0xbda04ed5bf4eb7b2U, 0x3ee1d3c4be8930bdU,
  0xbd9a90ccbe59bf34U, 0xbd14fdf93e469711U, 0x3dff9edfbe83e655U, 0xbe2b9abfbef8ec1dU,
  0x3c93cb5c3f2b1a44U, 0x3e36be55bf01624fU, 0xbd5e84edbd5405f7U, 0xbd0604153f2f6a55U,
  0xbf5ad100bdbd1eeaU, 0xbd90ccb13d4ee280U, 0xbda7b069be81abe4U, 0xbf01812d3e28f65dU,
  0xbdaf34f4be267b0cU, 0x3d5863abbe61756aU, 0x3f62a5bbbe7ce103U, 0xbd28d67b3eb30366U,
  0xbd03d97ebef766bbU, 0xbd83bda63ee3dbafU, 0xbcd5c68f3eac09bcU, 0x3cbe8911bd5202e6U,
  0x39f9fdda3e95bd4dU, 0x3d423a3abf113322U, 0x3c97b6ccbd686266U, 0x3ecb609abeedb0d0U,
  0xbd088a19bececb51U, 0xbcd88f1cbf1d81f7U, 0x3f0f467cbeba692fU, 0xbd31596bbe8e8df8U,
  0xbd077b5bbd7d6c00U, 0x3eeedeedbea14222U, 0x3c3caf42bbe0719fU, 0xbd09b395bf1f5122U,
  0x3ed20ef63d88e46bU, 0x3b49a7533f85abf9U, 0x3c647141bf267e56U, 0x3edab4bf3f9f1f6bU,
  0x3cb04eeb3f317bbdU, 0xbd226a06bf10d2d3U, 0x3f1da3913f27b096U, 0xbd3ba6c2be6a0172U,
  0xbc71e81cbc92c4bbU, 0x3c386f8cbe1caf6cU, 0xbce2e011bf3fd51aU, 0xbd05a7db3ea66645U,
  0x3f2e4b2cbf17cdb5U, 0xbd3ff8c8bf07046bU, 0x3c9e5494be819d8eU, 0x3eadc71fbf028ed6U,
  0xbbbcfaadbeaf049fU, 0xbd8b4a773e84296aU, 0xbe4851f9be6456c3U, 0xbd26ec4abf0d7bd0U,
  0xbc3546793f673b7bU, 0xbe1058f4bf06bce7U, 0xbd878c1abf52f368U, 0x3d8567673f6167dbU,
  0xbe70360bbf2fd8c2U, 0xbcd1e198bf0b1932U, 0xbd6d9340bcf6da62U, 0x3f199199bef9ee4aU,
  0x3d30e0eabe950d84U, 0xbd9cbefe3e0d736dU, 0x3dd9a4babee0c107U, 0x3a797c0abe1fb029U,
  0x3cb03fe03f922dfdU, 0xbf03da8ebe82a7a4U, 0xbcce9179bf44ef49U, 0xbcde67a43fba707fU,
  0xbe8575d7bf445768U, 0xbcd23e0cbfb8ba5eU, 0x3da961763fcafef7U, 0xbd849881bfb2ed18U,
  0xbd6bf9623f5cb24dU, 0xbb33c401bf7653c7U, 0x3f5da12a3f70c69fU, 0x3c2fdb7c3daf01fcU,
  0x3d3b29fbbe5eb7c4U, 0x3e0e8824bb3efb85U, 0xbc1c4ded3f483e7cU, 0x3cae3ac93e95c457U,
  0xbda774ad3f3223e3U, 0xbde8a1dd3f237951U, 0x3cba2c053e304479U, 0xbe7ab5c73f34a7a3U,
  0x3d65012a3d3c14ecU, 0x3cf16d1ebf25ba2aU, 0x3ed31a943d9b4cddU, 0xbdf24923bc2d22daU,
  0xbd9adb23bdb867e4U, 0xbdfbb831bd31005aU, 0xbd920af4be123a6dU, 0xbd402370bd0b8385U,
  0xbe511580bd0b2e63U, 0xbd05f2debd846db3U, 0xbe20ea56bcd855b5U, 0xbdb20b19be1f1cd2U,
  0xbde99113be82dac8U, 0xbe539d5dbdbaefd1U, 0xbe51da8fbe0c00d9U, 0xbe43f4a7bc7b64ccU,
  0xbe191b17be34be68U, 0xbe79e5793c9deb68U, 0xbd92ab12be0e41e6U, 0xbdfc6ac8be308073U,
  0xbe4508ec3bf7575eU, 0xbe3e92aabd59adfcU, 0xbcce625dbd5e48f8U, 0xbda6999dbe217de1U,
  0xbe57ce55be4db05eU, 0xbe15e59fbde203a3U, 0xbdeb429bbd8f9b4cU, 0xbe0c20b6bde0a7fdU,
  0xbda889bc3c4166e7U, 0xbdf6077ebdebf5bdU, 0xbe5116e4bdf3b11cU, 0xbd6d87a4bdd49f88U,
  0xbe63c9b3bd988a36U, 0xbe4679e6bdd17464U, 0xbd42d3b5be2dbee3U, 0xbe8cb326be43d55aU,
  0xbd5f396ebbf42d29U, 0xbddfc90dbdac2230U, 0xbe798c0ebd6e6e0eU, 0xbda24701bdff2ac1U,
  0xbe4ffba7bc2e9941U, 0xbe1606863cb04891U, 0xbe224f61be30d636U, 0xbd6e9b6fbcba73e3U,
  0xbe32af993cb71267U, 0xbe5ab221bde30429U, 0xbe47943abe039452U, 0xbe80b3aa3b97bc86U,
  0xbd53b8a3bd079b2cU, 0xbe5ad8df3aeb0541U, 0xbe0ce8a1bd8e0d91U, 0xbdb9326ebe539bfcU,
  0xbd89f299be33efc6U, 0xbd52321bbe42abd2U, 0xbd9ee344be2af482U, 0xbd481d1dbda86a0fU,
  0xbe27ca0ebdc83070U, 0xbe3675a0be0bc90eU, 0xbe547d03bc800970U, 0xbe5d0989bdda2471U,
  0xbe3feca8bde37251U, 0xbd97578ebdb90cf2U, 0xbe283e56bde78796U, 0xbca323c5be4c1543U,
  0xbe380d8bbd1f8189U, 0xbe46e607be2d7b89U, 0xbdd8979fbda98d99U, 0xbe4952d0be1059beU,
  0xbe20b413be1345f0U, 0xbe1b9c66bddb4039U, 0xbe33562cbde600eaU, 0xbe2a053ebe269279U,
  0xbce87a17bb5fe1a1U, 0xbda162adbe49a0c7U, 0xbd7ae143bc133cbdU, 0xbe0d7d0ebc074483U,
  0xbe107a943c52a105U, 0xbdc70450bc7116faU, 0xbde5b5303cf905cfU, 0x3d625d9b3e68a70bU,
  0x3ed0947ebe37a519U, 0xbf15df09bf4e820bU, 0xbe02e5e23ef4a358U, 0x3f0d5633be01bf00U,
  0xbf1caca33f3323caU, 0xbe11ccb83f06e31bU, 0xbc9afd6ebed48aaaU, 0x3cad329c3d3bb77cU,
  0x3d99ed043ceb9322U, 0x3e49ca673eb1c036U, 0xbd2c447abc6f1825U, 0x3e78e525bd8b10baU,
  0x3d0ea8de3d953e1bU, 0xbc6dd252befb3075U, 0x3c6245f03e036b2aU, 0x3e94c879be1e5983U,
  0xbd1e77253e463d62U, 0x3e22c434be360ae4U, 0x3d3654083d292213U, 0x3c1c16d13d81f410U,
  0x3cc31865bd98ec3cU, 0xbd9357c6bd487c6bU, 0xbd3728d3bdfa6c17U, 0xbe714f6fbe20373fU,
  0xbc7ec2e83e61822eU, 0x3ca805763f0c2054U, 0x3d0c94e13ec92515U, 0xbea1253fbdb98f9fU,
  0x3e12abe2be128fb5U, 0x3cfb08ecbe65bdd1U, 0xbb2c0937bdfa62f8U, 0x3ea4d89cbd808cb0U,
  0xbd965cf93e44b235U, 0xbe9feaa83e34c7d1U, 0xbcd78d013b9def07U, 0x3d217c9ebd927ff0U,
  0x3e17ef3cbef4785aU, 0xbc6fd7033da1bc24U, 0xbd647ea03cfabb86U, 0xbc8f4a993d6baaafU,
  0xbe28b6473da1d20fU, 0xbe177aa9be827d40U, 0x3d3e5f05be9910d2U, 0x3ec2cad63d32d4c4U,
  0xbdf4554b3e948f65U, 0x3d0e3c2dbe1e2612U, 0x3da005cf3e71bbacU, 0xbf2653d23f1b0840U,
  0xbe8d2d86beb171f5U, 0x3c29fc8cbe6b7721U, 0x3da5875dbe26f232U, 0x3eb640e63d1deb6cU,
  0xbbe2ec703ec71b61U, 0x3d435a28be8e2ccfU, 0x3cdc832c3dec73c2U, 0xbe55ae94bd82f4a5U,
  0x3eef9dffbe039179U, 0xbe857ff83e17fe58U, 0xbcfd1ae73dd32fe5U, 0xbc85b30ebc843595U,
  0xbe2bb3853df60bc3U, 0xbd8d53f83ea6c99fU, 0x3d836e3f3db712feU, 0xbde5a8213ea438fbU,
  0xbd15755e3e4ae781U, 0xbe9a7d9c39d25dc9U, 0xbdbb77bb3d4c68a0U, 0x3e65f938bd2cb1b1U,
  0xbe33af803e9e89e2U, 0x3d9adc753eccb3a7U, 0xbdd6e2163ce40c49U, 0x3df78576bc6c5eecU,
  0xbd0a7eee3db2cd6eU, 0x3dc75b7dbdcf9ae8U, 0xbdb86c47be642980U, 0x3e8634ac3d50d979U,
  0x3e3486493e9e81e5U, 0x3c8ba86f3e82de45U, 0xbcfab249be26b2d7U, 0xbeaae7a0bc576a99U,
  0x3c662b963d3f85eeU, 0xbe6c1c13bec0c3f3U, 0x3d3dc9b4bec5936aU, 0x3db869df3cb62183U,
  0xbcadf199be045e87U, 0x3c945d773e3b68e3U, 0xbd061aa7be165e25U, 0xbf6d0c5ebeb1b97bU,
  0x3e3394403dccd494U, 0x3f2c21c8be88d99bU, 0xbd677592be129ec2U, 0xbdaa5ff3bd5fdb7eU,
  0xbe6691683f0a6c4aU, 0xbd939c6abf3ea6e1U, 0x3cf57703bf66f77fU, 0xbe8a0ab4be5ba961U,
  0x3e236e9bbe0d0b31U, 0xbebb29e63e7c6b35U, 0x3d5f111c3e8ee91bU, 0x3e7ccd58bcb8cb73U,
  0xbe1e28d5bd9a8834U, 0xbd50c34c3ee5513aU, 0xbba5d03a3f2d03d8U, 0xbcea1c6d3d7e551dU,
  0xbd618d8abe1149a2U, 0x3db63d843d8bea76U, 0xbdbaf1b73e49880aU, 0x3e4e403dbd2bf8c1U,
  0xbe21d8833f08f429U, 0x3d416c6cbe14b611U, 0xbd390801bd7d41beU, 0x3dd68c6abeb5f483U,
  0x3eb126d03ecbff04U, 0x3e16c38dbe9db642U, 0xbd6bc9473e59940aU, 0xbd4b97e33c5e39feU,
  0xbdb3452a3dc32721U, 0xbc8094703e82723cU, 0xbdcc3aa23eab9e9dU, 0xbeb7bef23dee6769U,
  0xbd367dc0bf220930U, 0xbcce98bb3eb5d85bU, 0xbdbe4893be80b46fU, 0xbece8350bd6c4aa8U,
  0x3e868ebdbe05747dU, 0xbcae9b8fbe9282caU, 0xbd1751e33ed12681U, 0xbe97264bbf5e640aU,
  0xbe76afd6bd1d946cU, 0xbf4d45113dad1915U, 0xbd9f7a1c3d727056U, 0xbf0d607dbd64565aU,
  0x3d113c073dacb9feU, 0xbd8e8697be93ac88U, 0xbd8e8b62bec6aeadU, 0xbf42165dbddebd09U,
  0xbe5dc4cdbdb332bdU, 0x3e7df878be140fa3U, 0xbd80a2b53df1c6fcU, 0x3c1b0ea7bdaccc32U,
  0xbf31f4dcbdf50aabU, 0xbd86bd123eddb2f4U, 0xbdd748a73eb7e51cU, 0x3d3f1e5b3e2d1f39U,
  0x3e6347db3e87eb25U, 0x3d4464c63e243400U, 0x3d10c68c3e31ef8aU, 0xbc108ec8bdd6ee6fU,
  0x3ec883b23ea0322aU, 0xbd5fd4483e8caf47U, 0x3d76847c3f34377eU, 0xbd583a3d3d6a9d25U,
  0xbcdfa2c3bf393dbbU, 0x3eacba803edfa816U, 0xbdd6739cbd92979dU, 0x3efcba9ebdd9dbb5U,
  0x3df8bd113d9fb7d8U, 0xbdaccb94be743337U, 0x3d7000ff3f2ba778U, 0xbeee38503f19a1edU,
  0x3e5d683d3e97f5bbU, 0x3e9b5166be8256b1U, 0xbdc0593e3ca704b8U, 0xbf1a64193da966a8U,
  0xbd123477bf90b059U, 0xbdcaa2d4bec650ccU, 0x3d02a39f3ee18642U, 0x3fa1c4dabe8df2f6U,
  0x3f15bdfa3eb0bed7U, 0xbf6e364a3e8931e4U, 0xbd3cef58bebbf1a6U, 0xbed5e564bd27beccU,
  0x3eabe422be5f747eU, 0xbd038b2f3f4f36b4U, 0x3d7a8a8a3ed06f36U, 0xbeb330f53ea97341U,
  0xbe66de43be6edaceU, 0x3e8a96babeb79978U, 0xbdb12a64bede8b2fU, 0xbeb370f6bd98223eU,
  0xbee8560abd854901U, 0xbc565a0d3e0e902bU, 0xbdc082c53e2e8c81U, 0x3dc1b04a3e3755ebU,
  0xbdb27bb1bf42f3b5U, 0x3d949200bec5cd5cU, 0xbd00dbf53e07f502U, 0x3cd02fcdbd90bdd3U,
  0xbe232a1bbdf67bd6U, 0xbdb86600bdaf527fU, 0x3c60900c3e36bd8eU, 0x3e13dafc3eae7102U,
  0xbe936ca5be31f5f3U, 0xbdc745d4bebebe04U, 0x3c4c4d813ec3d65cU, 0xbdbc3f9c3b355ff0U,
  0x3eee00403e02905bU, 0xbcf74ce8be1955b2U, 0xbd3cd666bee21d47U, 0x3e80bac53f25976cU,
  0x3e9e164c3e6fd1dfU, 0xbe6f3f4c3e86fe2bU, 0xbdb52020bd83d483U, 0xbf289d77bdd61336U,
  0xbfa213dbbf1c0d3fU, 0xbdd6a6083ebe078fU, 0x3d18fa09be757eefU, 0x3e42c06c3dd52914U,
  0xbf0868c1bd3e609fU, 0xbda13a3b3e99e274U, 0x3db0342ebd268fe8U, 0x3e1059f3bd65e880U,
  0x3d2b6f4cbdbe8cd4U, 0xbcd9575dbdf33885U, 0xbd0e07db3e7efaa6U, 0x3e49abf6bdaa36f3U,
  0x3c4ef81a3f071efeU, 0x3ec82533be6aa885U, 0x3ab85874be42edf1U, 0x3ded3409bc3a7debU,
  0x3d823692be44501cU, 0x3d9c01e03e28e4b4U, 0xbda208fc3d3981f8U, 0xbd7602dabe53c1ccU,
  0xbe0a4afb3e0f03c9U, 0x3e8d87c73e26e947U, 0x3d158d4abd56c6e3U, 0xbe44a98f3d2e8fc8U,
  0x3dc329e73e11ea11U, 0x3d27e3debe81548bU, 0xbd5f7a8f3ed14b32U, 0xbb1e15d33dc765bdU,
  0xbe94ed1cbe349409U, 0xbe256b53beb26b43U, 0x3d6e5ba9bd253c2dU, 0xbdf862ee3d5e8746U,
  0x3ed51b4fbedf0a3eU, 0xbd1218f1bd9b7e46U, 0x3dd864bbbd34e567U, 0xbd3ab655bb8cd7e2U,
  0xbe564a043dbe304dU, 0x3e223ab33ecb4985U, 0x3c4f1a55be087a7cU, 0xbe0d72023d1c150dU,
  0x3f313718bf1974f8U, 0x3dd581d4bee96f77U, 0x3db921b5bdee3e8eU, 0xbf0a7d423e1e04c6U,
  0x3ea0c0813e0bd9ddU, 0x3d0310de3e8432c8U, 0xbcdb0d85bd070b1fU, 0x3ef3b7b63dd5819aU,
  0x3dbfcac63eec5ea4U, 0xbd87e584be9c22fcU, 0x3da7cafc3e9fe3cdU, 0x3e0680c0be4f3c56U,
  0x3e9cd521bd9b2ac8U, 0xbdbb526f3e23db96U, 0x3d3b506abe2e65c2U, 0x3dd96bbd3d3e5004U,
  0xbea3e1473eb36cfcU, 0x3c990b31bdb32a24U, 0xbd70da45be216ff2U, 0xbddda180be2ab390U,
  0xbe40eab43efdbd88U, 0x3e073d8b3da775b7U, 0x3ca5bdf3be00a5b9U, 0x3e0e97db3dd8e55cU,
  0x3d0803483e32fbc4U, 0x3b39293d3ef9a0ebU, 0x3d82aeda3db981fdU, 0x3e9b4b8d3dc18757U,
  0x3e15daa73dc6d2daU, 0x3e2c093f3e8a9371U, 0x3d481e2abe157fbcU, 0x3e482c19bcc84015U,
  0x3e63b9b43e3a01b2U, 0xbd9bf2aebe7fbfa9U, 0x3ced2f1dbe4dc930U, 0xbdceb789be5d53f5U,
  0x3e32df753e56b31cU, 0xbe6797483e1d6842U, 0xbd97931e3c14c07eU, 0xbe4faac4bd916e62U,
  0x3ef10ee1bea628f9U, 0x3da22366be210462U, 0x3d9c19efbeb9d9acU, 0xbf1436f7be8f881cU,
  0x3e3355443ea76de8U, 0x3efa4fc3be47e827U, 0x3dc876ee3e5c6161U, 0xbe3323f33d81312aU,
  0x3e766fa93f0da924U, 0x3d34aa16be8d6b72U, 0x3dccc8d3bedae8f8U, 0x3dfb5873be3091d0U,
  0x3e829b6cbebb5772U, 0xbe573a413e2cd511U, 0x3d7fd1863ea25c0eU, 0x3ef97ca1bd4f975eU,
  0x3ec66c0bbdf6e986U, 0xbd83cb303f1a0690U, 0xbcb2a23dbc481a35U, 0x3cfebb18bd905ecfU,
  0x3c862086bdc6130bU, 0xbee3f11e3e4cd751U, 0x3d18fe923d66e35fU, 0xbde7b294bd13a188U,
  0xbec9b3d53eaf6d7aU, 0x3c1acd063db32685U, 0x3d2c9a94bc9659c0U, 0xbe6e0c5abed2f666U,
  0x3e6c8b303e9c9e02U, 0xbdc9bf673c061636U, 0x3ce97cd63da7781fU, 0x3e035da93c90bf2fU,
  0xbdc3cbf93d32b06bU, 0x3de08f6c3daa6cb5U, 0x3dcade56bdeab898U, 0x3e2867cbbc690969U,
  0xbe6b568c3ec8fbd4U, 0xbeb02bb53e22da5cU, 0x3d7964dd3e289287U, 0xbc8c5e363d8e0038U,
  0x3eae89d8bd99058fU, 0xbb18db1f3db4c37dU, 0xbd05b6cd3f084e75U, 0x3dab5a95be0db0ccU,
  0xbe671bc23d950c7cU, 0xbe875129bebacfb5U, 0xbcaa93353ede844fU, 0xbe3b5e7a3d5171d2U,
  0xbe6088c13ed55cfcU, 0xbcad47ddbe444ee7U, 0x3d4d8bdcbf283d72U, 0xbeab12f73d981a50U,
  0xbe42acc33d21b989U, 0x3d755514be7109b3U, 0xbd4511083c29d730U, 0x3ddea17c3c3e9653U,
  0xbef16acebedd525cU, 0x3dcb9fc83de80c7dU, 0xbc25fe62be3a3552U, 0xbea640a33d67676dU,
  0x3e42158ab9253552U, 0xbd63e002be9375c7U, 0x3d58c1a63e0a40ccU, 0xbeffc1163c92486dU,
  0x3d89f1923e9ac0aaU, 0xbd3eb7423e2bb9cdU, 0x3d4fab443e892712U, 0xbdd209bc3ec97035U,
  0xbe7dd4c9bd91b725U, 0x3eba9d2c3e6066bbU, 0x3d63dfdc3d6c59edU, 0x3ed49375bc78f815U,
  0x3d159957be6e8589U, 0x3db7c94abeff79afU, 0xbd34140ebecd9d57U, 0x3deb1a7e3e60b0bdU,
  0x3e928c103f0772d4U, 0x3da9ebf6bebcd354U, 0x3dc219f0be0fcfa7U, 0x3eaaee5abb7b741dU,
  0xbe1e483dbfa9df6eU, 0x3cbba6953e02f206U, 0x3c4d108f3f444dd1U, 0x3f80d2b63ec1a9c4U,
  0xbe0aa8c33ed2da68U, 0xbf0156f2bebcce36U, 0xbd63bd963dda96eeU, 0xbd8dc4cdbd9194a4U,
  0x3e079e88bd44fd0cU, 0x3c934fe93ed5ba7bU, 0xbc297c1dbe74c5cdU, 0x3da12b443f108725U,
  0xbc5e7fd63ecc78e2U, 0x3d8fa885be5a6f7dU, 0xbca943df3d75b7dbU, 0xbc8ed0f03deb3004U,
  0xbeabee5c3d90d1a1U, 0xbd2b71fa3e01a5b4U, 0x3dcd375e3da44351U, 0x3f02dffe3ee66cb6U,
  0x3e837480bea170b7U, 0xbeb96044bb6fae16U, 0xbd8f0c583e91a24eU, 0xbc519268bd3f2172U,
  0x3d02b81c3e19ce09U, 0xbd182ec2bc4514caU, 0xbc99c540be26a3fbU, 0x3ec7ba8d3e8c87aeU,
  0xbd9a8dcbbe8c9901U, 0x3d1c83e2be201080U, 0x3dbeea863e8bfc87U, 0xbd2ca58b3d81082dU,
  0x3c5c750fbe86597eU, 0x3c0d7a64bcef78e7U, 0x3de2f632bfa9ad17U, 0x3f0be57ebe2ca804U,
  0xbe4af94fbf146d56U, 0x3e2354813eb5e728U, 0x3ddbec0abf138b39U, 0xbe80decf3d971d02U,
  0xbf2045c7bfa85540U, 0x3c96df76bd2c6441U, 0x3d21a7d63ef00035U, 0x3f13b4a0bec2bd59U,
  0x3e89424c3e30b697U, 0x3f333674bbb6949aU, 0x3d0835d7bc89b7d6U, 0xbed14d7cbd326df1U,
  0x3efd1723bd2dac4aU, 0x3dd5366a3d7d7be6U, 0x3cb9410c3e9bc4c8U, 0xbf5579f83d959c22U,
  0xbf0438d7be0574b0U, 0x3df3bdc2be6f870cU, 0x3dbca2e9be4314d9U, 0x3efe3973bbe95515U,
  0x3f2c05cd3d254115U, 0x3dc8e3d2beca257eU, 0x3d4084753dde406dU, 0xbe885c953de6919aU,
  0xbe95dc3f3e8d628fU, 0x3e5a1529be6e9752U, 0x3dcddd86bc39e3a5U, 0x3daa8f60bd6c58adU,
  0x3ecbdbcf3cd40e62U, 0x3dd58020bf156d9fU, 0x3dc36f873da2a218U, 0x3d01b7b03e8f23b5U,
  0x3e8a474f3c56a5ebU, 0x3f0eef1ebd1468ddU, 0xbb66047cbd80229fU, 0x3cc5cef9bd1af729U,
  0xbdf14a18bdb579aaU, 0xbca30a47be8e989fU, 0xbd4df6a4bde74240U, 0x3f0841b0bddab363U,
  0xbeb71ab2bdb7e3a3U, 0x3efddafd3e163323U, 0xbc06527c3d9b6f64U, 0xbf013560bd057e6cU,
  0x3f5aa85abf441775U, 0x3b017a6ebf0627eeU, 0x3c10ab133ecb16ddU, 0x3f1dca9b3e562b90U,
  0x3e14c9c93e91a89aU, 0xbe10dc4d3e94f3d7U, 0x3db31f0c3e01f24aU, 0xbf6a816e3dc6e77aU,
  0x3d86e9e0bde95d44U, 0x3db018283ee45085U, 0xbd65a7043ebf5f65U, 0x3eb6cb3e3e8b5ff1U,
  0xbdd4dccdbdbc521bU, 0x3cc6d7e13eb3de37U, 0x3d7d38b53e0d5aceU, 0x3e45295f3ca34ba2U,
  0xbdafb76cbe01264eU, 0x3cdd05153e8ab395U, 0xbd80b2423e10996bU, 0x3e70b875bed2937cU,
  0x3c2264b93e95d92fU, 0x3e06a1083ec61e90U, 0x3d5118073e12e09eU, 0xbe5383773c116ec2U,
  0x3cde5deebc8b87beU, 0xbd9ca34c3ebccee3U, 0xbd9697b2bdab9e59U, 0x3e48dc053edea3f6U,
  0x3bc2017d3f143bf0U, 0xbf08a4c6be8d4597U, 0xbcb823a53df46f50U, 0x3ed53b54bd75251bU,
  0xbcd69bc93ddabffeU, 0x3c29b1583eee46a8U, 0xbd4ee8f2bde93de6U, 0x3ef5cb9abd81d79eU,
  0xbe696cfa3f437f3cU, 0xbe4e65a53e3ade5eU, 0x3dd9cf2c3e845364U, 0xbda3ff7f3d9aa559U,
  0x3f0ef6ce3d10ddaaU, 0x3da8a760bd08dd7eU, 0xbd2982733d18162eU, 0x3f22d65f3e328312U,
  0x3eb8a30fbed03f58U, 0xbed9681dbe76e5aaU, 0xbda61eae3c480c57U, 0xbe46417abcaf0b89U,
  0xbf06c5383eb556e4U, 0x3d8c34c13ed1e75aU, 0x3d7ebd093f560a89U, 0xbf12c653be1b15ffU,
  0xbe60a19fbea8d3deU, 0x3eb38f663df1cbc3U, 0x3bdc23c8be023afdU, 0x3eb1c1603d3c8e0fU,
  0xbf0f13c63d3897adU, 0xbd2288fdbe5d17abU, 0xbbebfa0fbee835c4U, 0xbe9a6e80bbb7924cU,
  0xbe052c88bf2d5988U, 0xbe1fe8fc3cf83ab7U, 0xba1f13d8be8709edU, 0x3e675cb5bcdd3b83U,
  0xbe86c01cbeae0aaaU, 0xbbc66cdcbd105e83U, 0xbc86c31f3e0e3e31U, 0x3b3b8fc73e8c5651U,
  0x3d83f9dcbd58b5bcU, 0x3ee69e533f10adf7U, 0xbd6951a9be729011U, 0xbd8de385bcd81b56U,
  0x3c92c282bd9144a9U, 0x3dd44e52be36f773U, 0xbbbf9b793e1ec3c7U, 0xbeb9eb05be1cc0d0U,
  0x3efca7b0beba5e8bU, 0xbe4a10923e905e8cU, 0x3c81589cbd3a8043U, 0xbec7ff3e3d5fd789U,
  0xbe20c2073e296df8U, 0xbda6b3f8bdcd2169U, 0xbd1051b1be9679b3U, 0x3e7cc4453d9775cfU,
  0x3e83cecc3ec251a9U, 0x3d6c5ccdbedeb8c4U, 0x3dc4fa0e3e1a7337U, 0xbdd99f253daa040aU,
  0x3e5d01f93e717546U, 0x3d5a7d9f3eabc074U, 0xbce62f7cbeea0cf8U, 0xbdc07e433e27ec49U,
  0xbe886ae7be2b8baeU, 0xbdb6450cbec427afU, 0xbd8b73d7bd6d45c7U, 0xbadf03ac3c726bb6U,
  0x3e33723abf39a47aU, 0x3db44f52bed6eb58U, 0x3b9230e9bd39c858U, 0xbf3bbdd03e858f5eU,
  0x3e8f5f1abdc0492dU, 0x3e526a3cbe46e635U, 0xbc779cbfbdb6b523U, 0xbe998dca3d0ecbecU,
  0xbe702f733db53bf2U, 0xbc113616be2c9a09U, 0x3d7aa771be6562feU, 0xbd4351a7be16c94aU,
  0xbb657e7b3d0a223bU, 0xbe4bc753bd564e79U, 0x3d8133f3bd801d80U, 0x3e0b1ab43d71915dU,
  0x3d975851beed50afU, 0xbc0344c2bdb1fb8cU, 0x3c52ce92bdb83bd1U, 0xbe7321f03e8fde19U,
  0xbe270acc3e8518bfU, 0xbdf2b46bbe6d8419U, 0x3d484cf5be028267U, 0xbfbb0fadbd87b0ceU,
  0xbd9f5fed3e46b031U, 0xbc0941a63e3e6fdbU, 0x3c3caddebf09a721U, 0x3f3afec3bd480fd4U,
  0x3f003c673eda76bdU, 0xbe4e13f9bf36cdf9U, 0xbda613d23f3b4c12U, 0x3ebdf0333d491e85U,
  0xbe5ca4a43dc98e6aU, 0x3d1a0d5dbe3086c6U, 0xbdabca84bf81ce70U, 0x3d433ebbbe7ae720U,
  0x3d7eb32d3f4a9528U, 0xbec49f453d194ca4U, 0x3dcb15443da83583U, 0x3e0dcdaf3de37b4eU,
  0x3e9e0d8a3dc9dc10U, 0xbd8331363e7c3a17U, 0xbda5faa4bee4a06cU, 0x3e53f7ee3dc0dfa8U,
  0xbe0a95603dc1928aU, 0xbe97c543bd798e29U, 0x3ce303433d963fc2U, 0x3e3333d4bd8013eaU,
  0xbeb062afbda4102fU, 0xbd93697cbf03080dU, 0xbd398ec1bdcf906fU, 0x3eb5c7583e5d9bc5U,
  0xbe997d3d3f07d2d7U, 0x3da210f0bed8b225U, 0x3cf415cb3e147365U, 0x3e76294bbd488b93U,
  0x3ed7fb253e7acf55U, 0x3cfe024fbe34fb28U, 0x3be6dea53db787f4U, 0x3ddd7bb13e8dad0bU,
  0x3dc0325f3f520f4cU, 0xbf21df39be9240d1U, 0x3cb217fa3ddb9728U, 0x3dc3ac9fbd1080c1U,
  0xbf0f1efa3f247758U, 0xbc4a8ce03f17045bU, 0xbd5e8fd8bde7a7aeU, 0xbece6f66bee51818U,
  0xbe4225eabe3d53c9U, 0x3f2150ed3f3660f4U, 0x3d4a96a43e142fdaU, 0xbf245b193d8df03fU,
  0x3e67d0bdbedd4f14U, 0x3d5f78a23f037f5fU, 0x3c203e03bee6c8a9U, 0x3d977c4cbe8d9b99U,
  0xbea5877d3e9099c4U, 0x3f5ee3413f01a265U, 0xbd428a69be3989a2U, 0x3e05de003d635c8aU,
  0x3e108cd3bef6dfe8U, 0x3d7f939dbe9c660fU, 0x3d636d793d1695b8U, 0xbe3328573cde509bU,
  0xbd8b12413f13f20bU, 0x3ec369a33e09b917U, 0x3d8f64a3be155c8fU, 0xbed4dbd9bd040a5aU,
  0xbca53ea43de24a30U, 0xbcd649e8be8eac99U, 0x3df2b892bd7897e8U, 0x3f02a49f3efc6226U,
  0xbe647b783d2780d3U, 0xbb5f78093e3ae119U, 0xbbed22babe0c5253U, 0x3e2963213d58c699U,
  0x3ea67720be0a4817U, 0xbd19cdf4be4249b5U, 0x3d5ac0073da9dd6fU, 0x3e5c62d8be0d4252U,
  0x3c9ef469bd7e6ca9U, 0x3e2986d53ed81426U, 0xbd31d6f2bced39d2U, 0xbefed5573ba1ee60U,
  0x3f255e8fbeed2e61U, 0x3c57a4a2bea85a72U, 0x3d84c638bf0b17a2U, 0xbed1058ebf818ef0U,
  0xbd65f4633f6bab7cU, 0x3e9b3b833ebcc498U, 0xbcc32cc6bef3157eU, 0xbe78162d3da39389U,
  0xbd232bb7bf03aa9cU, 0xbd208ceebe8062e2U, 0xbd04085cbf17c416U, 0xbf2fd8d1bf67775fU,
  0xbe94fd0c3ee9b0a1U, 0x3f272479bb01821dU, 0x3d6b9cc3be80360eU, 0xbce680e9baa87c56U,
  0x3e2b2e3bbdeb29d8U, 0x3ddcc3dfbe989025U, 0xbd353a1dbcfc5353U, 0xbe14f38d3cae7cedU,
  0xbdad6e433e205f9fU, 0xbe06db23bdfa40efU, 0xbd5485e9bd2cb7afU, 0xbd86f823bd0849baU,
  0xbed4fc953f4b9428U, 0x3ca648cc3ea7b118U, 0xbc25a803be52be9cU, 0x3edfe183bdbee2acU,
  0x3cf5755ebc1b5eb6U, 0x3e0e40083e7a86feU, 0x3d4aaa24bdb00d07U, 0x3ed170413dc42ea1U,
  0xbe5620cd3e91f028U, 0xbb6be828be125eb8U, 0x3db7fe8f3e500a3eU, 0x3e2a48263d62b4c0U,
  0x3e15c6733ef35dfcU, 0xbea90bc1be3e1ec0U, 0x3d5aa96a3ebbc48aU, 0x3d7e9e60bd2d88f4U,
  0x3edd95263e7d4ed6U, 0x3c94a844bd9c0408U, 0x3d68d703bf1315a9U, 0x3f6b782d3e052b81U,
  0x3c896e0a3e98d426U, 0xbf010793bf06e9d3U, 0x3d629af6bad18b10U, 0x3e83d8af3d5cadb0U,
  0x3ed274e33e0bbf47U, 0x3d4841343d199ae0U, 0xbd71d4d6bec63123U, 0x3e4d395c3ec03c10U,
  0xbe1d1aea3e53cabaU, 0xbf1278a8beaba86aU, 0x3d20f93c3cd07c4cU, 0x3c4125e23cf878e5U,
  0x3ef63d1c3c2b8326U, 0xbd1259dc3e4a1284U, 0x3c3a3be43ea780f3U, 0xbd30a9d33ca0f82cU,
  0xbf04e7a5bde02380U, 0xbd6b7c44be96edd1U, 0xbbe481c5be3d8f38U, 0x3e3a5c853def8b33U,
  0x3cfb6d16bdb72d71U, 0x3dd0dabdbecb0cc8U, 0x3dfeb92cbe45a389U, 0xbf104802bebc6ed5U,
  0xbd637d6a3e456037U, 0x3d8b07d83ddcade5U, 0xbd82a08a3bb9b1b7U, 0xbe8a0a11bd7742bbU,
  0xbeb82903be2939e0U, 0x3cfe95cebe7d7b9eU, 0x3d9b4e4b3ead093bU, 0xbf00db5d3dba7d1cU,
  0x3df9e8983e273233U, 0xbf296fe2bdfaf7d4U, 0xbb5b1b863dd97505U, 0xbd0cfcad3d156b08U,
  0xbe7406e33f228106U, 0x3dbf26d93f0b2678U, 0xbb8ad8c73ec87a38U, 0x3ef540733f112a42U,
  0x3d99ea61be2275c2U, 0xbd293e7abeb16aedU, 0xbcd656f63f1fbcb1U, 0x3f325613bccf77feU,
  0xbdb982e33f0a8d10U, 0x3cb391c2be282783U, 0x3db5962fbd0a5e9aU, 0x3e3392463f087ccaU,
  0x3ddbbb783e05b421U, 0x3dc89f17bdcae581U, 0xbbe63859bc8f651cU, 0xbdaaf62e3c5acb7aU,
  0xbf1d7858bf1e1ba4U, 0xbc7565e3bed427a6U, 0x3df9b281bf524b14U, 0x3ef357413d63bfdcU,
  0x3e292cd2be33a10fU, 0xbe54a9fdbca3f66fU, 0xbd8213aebd9b7bd9U, 0xbe5140a9bd5ba854U,
  0xbe0ef173bef066beU, 0xbd6311c83e9634a8U, 0x3da2b9f93db40582U, 0xbe88d7e43ef21801U,
  0x3d8a2931be891d25U, 0xbdb24e793e29e0faU, 0xbba95a62be7f12d0U, 0x3cfcdb1f3c8cb75eU,
  0xbdcec50fbe1cca8aU, 0x3d3a7b64be10c39aU, 0x3c8aba62be35aff7U, 0xbe809a133d051439U,
  0xbe4fb0403d18dca9U, 0xbe595d20bea9b6b9U, 0x3d98bb87be212e10U, 0xbeae6c00bd449148U,
  0xbef124f23e123577U, 0x3bdb5d9e3e2e09abU, 0xbd00da513e18bc8fU, 0x3ea3cf3fba841a7bU,
  0xbdeacf5dbe180865U, 0x3e4063f5bf36d4faU, 0x3db313c73ec8c800U, 0xbe10ac383d825c33U,
  0x3ee91b533dc6c114U, 0xbab892cf3c9ddab1U, 0xbd056731bf3b8b1dU, 0x3efe9d243ea8c6d3U,
  0x3edd3ea73f0c874dU, 0xbcca0b2cbd46db96U, 0xbd01e7133e2726e2U, 0xbd5cf1973da91b03U,
  0xbda2cf3cbd20b636U, 0x3e057e0a3df4d6f3U, 0xbd5c360abec22cfcU, 0x3f3a47993cc90293U,
  0xbdf04bf6bde189ebU, 0xbeb11c75bdd7d43cU, 0x3dace1f93d22bde5U, 0x3e89e8aabd385198U,
  0x3e5047953da167edU, 0x3d67a392be57d4cfU, 0x3d82e16bbe7ad58eU, 0x3f27f0b7bbae5d4fU,
  0xbd24f8c43e610695U, 0xbd73779ebe9586deU, 0xbc991d683e96b07aU, 0x3e2079dc3bcf0240U,
  0xbe7afd3cbeb5386aU, 0x3c654a373e3b0d42U, 0x3dbdd4b1bf7c31d9U, 0x3c6aab6ebe84858eU,
  0xbe3b87123ebc4898U, 0xbd70c673be325022U, 0x3df2af5f3cefa052U, 0x3e51068b3cd23650U,
  0x3dbe707abf2d0167U, 0x3aeeb9953f355878U, 0x3e02b1a53ed3e357U, 0xbedbf21d3e3e88a4U,
  0xbdc9dffebe6235a0U, 0xbf34e98c3ed422dcU, 0x3d9cf680bdc7ab41U, 0xbd975ae83d212e7dU,
  0xbf3e6e1e3eaab484U, 0x3bf575db3f17bf09U, 0x3d12b6fdbdc2e326U, 0x3ed96f553e9920b4U,
  0xbcee8ec6beb5c871U, 0x3e95e4963e5e6a2cU, 0x3d75fa053e48ac48U, 0xbdbd56f43dc29261U,
  0xbe6d0d6dbdd8dbbeU, 0xbd3054e1bea66046U, 0x3d444bfebe240bbbU, 0x3d681dfbbf05c64bU,
  0x3ed06ae93f174af8U, 0xbe49dd843f132f2dU, 0x3cbb42a33d4df489U, 0xbe9df6e63dc157d1U,
  0x3dbaf775be0b594aU, 0x3cf14ad53e6ef087U, 0x381e0ae03cd4b857U, 0x3e29daa13e160fa7U,
  0xbe4dec00be4a469cU, 0xbee38fe53dbb1cf1U, 0xbc86d807be45ee9aU, 0x3ae29fb43db5ceffU,
  0xbe5db636be0db188U, 0x3cadcd393dcfbb54U, 0x3dbacf19be9f4f0bU, 0x3e64f1073ddffcdcU,
  0x3de0d4fe3d3974c4U, 0xbe6a8e92be8992a0U, 0x3d881898bd82e53cU, 0x3eae68593dea6c82U,
  0xbed5005d3f1afed0U, 0x3d608ecb3ec99d79U, 0xbcb2171e3f32c0d2U, 0xbf4aac0bbed7108dU,
  0x3e55edbc3d89afdcU, 0x3f390f453e8ad0e6U, 0x3d215965bed44de7U, 0xbed6c66ebc6e8d20U,
  0xbe8918593f015e28U, 0x3d1ea089bd40aa19U, 0xbd4fed25bea11d60U, 0xbf4e98e2bd82e069U,
  0xbe790b32bdcbdc5dU, 0x3eb27818be6882feU, 0x3cb8f8083cf317f9U, 0xbca3b3de3d2ea599U,
  0x3e900434bed3cdf9U, 0xbd5124d1bf261629U, 0x3ccd974fbe399513U, 0x3cd6e59cbe93abbcU,
  0x3dbfb18f3e727d39U, 0xbe27bdf8be98f90fU, 0xbcb624203e90b1e4U, 0x3d88c534bb14aadeU,
  0x3d7167e93e808c20U, 0x3dbade3f3e3425baU, 0xba8a53293e834d7dU, 0x3db852803e152e85U,
  0x3c7e349b3e026141U, 0x3e14cf8ebdfdfa79U, 0xbcfa0872bd7088f0U, 0x3e1d931e3ce550e2U,
  0x3c2bf1543e1f32f7U, 0xbd6e1305bec7ad3bU, 0x3df5e429be15c188U, 0xbd6c54c2bb8fa278U,
  0x3d8935c4bf05f36aU, 0xbe42a1a1be84f37eU, 0xbd41f303be9f87f7U, 0x3e0a6c123df7ed9bU,
  0xbe78cdbfbe8a53a4U, 0x3df29f18bd8cfac6U, 0x3dd4d9913f0b003fU, 0x3f03a5c33e5b0f8bU,
  0x3e12b612be8fde7cU, 0xbcb0dc333df9f267U, 0x3d3f0675be811d53U, 0xbe0bcb813d88bdbcU,
  0xbd6b1d17398324a3U, 0xbcbcab0abe90ca2fU, 0x3dea0ceebee28854U, 0x3d40d5353e8d9a60U,
  0xbee949fc3e839c65U, 0x3e04acbc3e2b09a9U, 0xbc5383073e72de9bU, 0x3d3f5f453a99dde2U,
  0x3f272e7ebe268c39U, 0xbb8ddbd2be38a25eU, 0x3db3dc943de63932U, 0x3f05be323bf73e3dU,
  0x3e91c32a3e2c06eeU, 0xbe5fe0193da49dc4U, 0xbd1db21b3c4fa63eU, 0x3d92a2aa3daddafeU,
  0x3ee5a5fc3f1448c9U, 0xbcd8cb7c3e4a4859U, 0x3da9e7823eb7e75bU, 0xbd2d40b53e73cc12U,
  0xbd84458dbde61458U, 0xbd8ca3f9beab0311U, 0x3d0488b53e4ff9aeU, 0x3d2437ae3da5b7a2U,
  0xbec15dc93eed0707U, 0x3e01e4f3bdf51275U, 0x3d10ddde3df03d11U, 0xbd4488edbe128a1cU,
  0x3eebc1203e33f06cU, 0xbf0169b2be390eabU, 0xbcd9aedc3e546fa8U, 0xbd9d0d1d3d9c080cU,
  0x3e7e82d13e87123bU, 0x3de587723f26b3b3U, 0x3d91e87e3ee9d1baU, 0xbe1957243f271474U,
  0xbe9a958ebea076f1U, 0x3ee3812f3de4bf4aU, 0x3df337a2be22f153U, 0x3db937fbbc90d168U,
  0xbe6ffbec3d7ab0a7U, 0x3dc4d28cbe09900dU, 0x3c9f0df0bdb073d2U, 0xbe929c043dbfc425U,
  0xbe28e18ebe0a3149U, 0x3f03b3303f050603U, 0xbc754dbdbda3be79U, 0xbea91e753d42feedU,
  0xbf0fca0bbe506bccU, 0x3de42b583d77ae1aU, 0x3dded6d4be91353aU, 0x3f1bb2e1bdb91f3eU,
  0x3e0c56073ec86ce1U, 0xbe9fdae43e02a83aU, 0x3c96348ebb6539c0U, 0x3e48bddf3db5e65eU,
  0x3c8c811abe3564a4U, 0x3d36e3753e1d786cU, 0xbcee8875bde8c90eU, 0xbe5ea5843da9d494U,
  0x3e3908e3bf2299b8U, 0x3f0de0fcbd44ffb4U, 0xbd54abc3be5aba84U, 0xbd319d67bd457bf5U,
  0xbcdadcce3ddf7d8cU, 0xbd6a49a3be359e5dU, 0x3c9de8223d01c877U, 0xbe944134be82a438U,
  0x3ea1737ebda6517dU, 0xbd37f835ba857fafU, 0x3ccaefee3d773533U, 0xbe9d2ed3bce99754U,
  0xbeec0a753ef77578U, 0xbcf754393de45e3eU, 0x3d2c141e3f5bc8fcU, 0xbfbb067f3f6f608bU,
  0xbfc357f0bf275d6fU, 0x3f29ea603d42ba7eU, 0x3deea1cebf146d31U, 0x3b8fd09b3d1a0365U,
  0xbdf3b1e23da42c14U, 0xbc15128fbf0576eaU, 0x3d9eaacd3d1ddc17U, 0x3d8464063de6e3c7U,
  0xbd7d733ebedea36dU, 0xbe482a9dbe5c459fU, 0x3d70a2fbbd219e77U, 0xbe74043b3d09d7f3U,
  0x3e07496dbe8dc585U, 0xbd6c66abbe0fdafaU, 0x3dc58db8bcfca4e9U, 0xbdce7878be36efd7U,
  0x3da12675be18440dU, 0x3e33acf8be6e682aU, 0xbd86ad25bc688667U, 0xbdcd93903d2480f7U,
  0x3dbc984fbc7634baU, 0x3d3d6929bd12d233U, 0x3dc3283a3df8b347U, 0x3df14f013df503ffU,
  0x3cf918873d90b581U, 0x3e74e1cf3e086abdU, 0x3da4c9b4be2d536fU, 0x3e705ec03d8f7262U,
  0x3e1af3bc3d90d6e3U, 0xbceb9906be08666bU, 0x3d878534bd888c44U, 0x3c890356bf1570d9U,
  0x3e5b98b1beff67f8U, 0xbdf63edb3ce3f33dU, 0x3d8489ec3d55e983U, 0x3deb40f0bcf8113dU,
  0x3eafc7aabd80c44cU, 0x3c518ed63ec9cf7eU, 0xbd137b983e938999U, 0x3edb8141bdc0f584U,
  0xbb7b62ec3dd9f875U, 0xbe9ebfd8bdf6530fU, 0xbce0152f3c237834U, 0x3e05e9bf3d0e24f6U,
  0x3e284bf33dc803f6U, 0x3d97c059be352e1bU, 0x3c7de7ffbe5550dbU, 0x3ea481b63e7365a7U,
  0xbd46aca63eb3f599U, 0xbde3eb4d3e9a3474U, 0x3bbac522bde1547aU, 0x3df0d9933bf4dfe3U,
  0xbe2edcfb3d0efd83U, 0x3d014968bde5cfb6U, 0xbcc3aba93d149f86U, 0x3eec8eee3e7010eeU,
  0x3e84d31b3d0bd57cU, 0xbcc0033b3da5d28fU, 0x3d7ffd7b3e12ec92U, 0xbe37f9543d9d6463U,
  0x3d84eeaf3e7e1d27U, 0xbd16ebb1bd4c1291U, 0xbd9f99b5bdcd654aU, 0xbd61a7773d66df04U,
  0x3dc3e42fbcc82f8eU, 0x3ead89143e842405U, 0x3d7a604cbde99518U, 0x3e4193553d54b96aU,
  0x3db399bcbe7969c9U, 0x3d628eae3cc7947cU, 0x3db619903d3abc91U, 0x3cce676abdbe0346U,
  0xbeb50aabbe90b6deU, 0x3e9ce577bf051fecU, 0x3d302fb3be78ee1dU, 0x3e187cbb3dbe84ddU,
  0xbe5c85173e94cb3cU, 0x3d84a7313d1b758cU, 0x3cf4e0803e0d632cU, 0x3f15d6af3e92aac3U,
  0xbc03c5b0bf1b9b70U, 0xbde4c3ffbe57fce6U, 0xbc3ff7203e444107U, 0x3d39dc7d3d5b8563U,
  0xbd13eca5bd25690fU, 0x3d05fbc7be07d9b1U, 0xbd9069b5bd2d78a4U, 0xbe16b10bbe805dbdU,
  0xbc80da903db9fb83U, 0xbcb0367d3d9b911fU, 0x3d6f01f73df81df0U, 0xbe5316a43d80a636U,
  0xbb862dce3b8817cdU, 0x3cca005d3ed19657U, 0xbcde374b3e9e88e9U, 0xbe3fcc273f11ada1U,
  0xbe69e3f23f0c0092U, 0x3ec0b11b3db796b1U, 0xbd9ae7ee3c8205f0U, 0xbece59ce3dc7f9d2U,
  0xbc87d52f3f0f746fU, 0x3cb09831be1632d3U, 0x3ce75af9beb98244U, 0x3ef204013ed7093eU,
  0xbea440f73e961aa9U, 0x3d2d30cbbe351739U, 0xbd70c8db3deb23dbU, 0x3e8e970b3dbfe132U,
  0x3e58c212bedb08c6U, 0xbd3bdf5f3d04399fU, 0x3d512e353d574156U, 0x3e89fef83e1bf095U,
  0xbdbea8d73f44f29dU, 0xbe8b1406bf0069a5U, 0x3c11ba653e147310U, 0x3d7bc19bbb7a11b3U,
  0x3dc6dd593e4838e7U, 0xbd874ab7bc81eb89U, 0x3d4cf2873dfc0185U, 0x3f4c8cecbeafe1bcU,
  0x3d69539bbd2c4c4bU, 0x3f2cffd83cd47e49U, 0xbce1cf4d3eab4a1eU, 0x3e5902f8bd0386eeU,
  0xbe40675fbd4c6d1dU, 0x3da2c6123ecadce0U, 0xbd214503be791fcbU, 0xbe156296be8e3a78U,
  0xbe122a683e7ec7daU, 0xbe6c21273dd9682eU, 0xbd7c5284be21651cU, 0xbd919aafbd80bfbfU,
  0x3dd6aa6fbd1a0a1cU, 0xbd82f967bb07ac79U, 0xbcf2d72b3d8100cbU, 0xbe09d53a3ea84f99U,
  0xbd5b6578be9a63beU, 0xbe6e4561bed6cfeeU, 0xbd8021483e091d2dU, 0x3e270e1f3d6129e9U,
  0xbf16e8c53ecd5ff7U, 0xbd818b16bcfa747bU, 0xbd528fff3e043215U, 0xbda9b69f3ebcb848U,
  0xbe9048d8bc30aab2U, 0x3f1c16603e0fb3b8U, 0x3d30a8a3bd28e668U, 0x3edfca933ae6a236U,
  0xbe92680f3d9ac79fU, 0xbcaeb309bdf2fc8cU, 0xbd8ba9a2be8d51deU, 0xbece3d1dbdf22b39U,
  0x3d6e92f0beac5729U, 0xbe8492603df6132cU, 0x3db7c738bf9475c2U, 0x3f25e7cdbd93ad44U,
  0xbe5b16e73e957abbU, 0x3d6d77173f62c665U, 0xbd881435bdf31ee4U, 0x3b75d3a8bf08fd97U,
  0x3f4ea4053f54abe9U, 0x3e2e2aab3e6776dfU, 0x3c9a7b13bdaf0bb8U, 0x3ed96c2abc47d2cdU,
  0x3e3a2547be8171c3U, 0xbd1102ab3e2b36b2U, 0x3da466b33e10c5ccU, 0x3f0105143d889a3eU,
  0x3ea070b93f2b6bbaU, 0xbe1613963dc72b13U, 0xbd2c7b653e3dcee0U, 0x3e0eb1a43d6faf5fU,
  0x3e7bc9a33cad04c9U, 0xbcaa03bdbe0c5a72U, 0x3cef2f833eec97bbU, 0xbded39e93e366506U,
  0xbed416e3beed0e0aU, 0xbe8ea6d4be5d3c73U, 0xbda387f2be8ddd37U, 0xbdb3848f3a3cfe66U,
  0x3e3abe6abf3fffeeU, 0x3d1371113dc1f15eU, 0x3de88bfc3ea6d7bbU, 0xbf0f419ebd8ca3b5U,
  0xbe9c477c3e12bad8U, 0x3f1b4708be4ed0afU, 0xbca3c4713ea3cfc2U, 0xbf84c43a3d539649U,
  0x3e97b883bd214698U, 0xbca387d93e053628U, 0xbd178813be4bf51aU, 0xbeb0f7833db51ca1U,
  0xbe5fbb50bf0921ebU, 0xbed07fa33e19a38cU, 0xbca83f81bdbf578fU, 0x3f5d70383c4ef9e3U,
  0x3eea36113e6f4926U, 0x3dcc066abf2f6e66U, 0xbd7a405dbf937c8cU, 0x3f12dea4bf15567dU,
  0x3e8f42c73e8751b9U, 0xbd87b7f03e3603ffU, 0x3d17be17be99472bU, 0x3e585fe6bc562ec0U,
  0xbec01423bdc5c486U, 0x3dc687bc3e2d9b45U, 0x3d696d253f1b731bU, 0xbdae88113e0deabcU,
  0x3e473df6bd56b9d4U, 0xbd98536fbe8156d0U, 0xbcbad1af3d9a8ba6U, 0x3d4b34f73d1ed44bU,
  0xbe5197e13def6545U, 0xbcab206b3ca6371cU, 0x3d43df19bed2e98dU, 0xbd47b163bec06beaU,
  0x3e22d9743c00c162U, 0x3de1656d3d7a6922U, 0x3d6811993e7baab8U, 0x3e75ce1b3de1ffaaU,
  0xbe9000eebf566af2U, 0x3d38d3973e972098U, 0x3d8276f63e8bb0efU, 0x3e4fc33b3db845f0U,
  0x3eef4db7beb465b3U, 0x3e0373033ebf3357U, 0xbd68fe4dbddfaa82U, 0xbf0de2723a96a19cU,
  0x3e2e40bdbeef3837U, 0x3da73b76be91e97cU, 0x3da0cb19be2ab7ffU, 0xbe97ce033d8a75fbU,
  0x3e82498a3eb93741U, 0x3f15b0093e348946U, 0x3ca0089dbee89a5fU, 0xbf0019433dc6c30cU,
  0x3d85a208bf730cfdU, 0x3d4dec093d3ae7b8U, 0xbd00aff7be51e0f8U, 0x3d44d512be154714U,
  0x3e2517723deef35aU, 0xbde5c7473e4ad8ffU, 0x3d17853cbc84ef16U, 0xbc6ec2f73d98393fU,
  0xbdf6b1b5beb07d1eU, 0xbdb63f613ddfa52aU, 0xbd35ae9d3cbac5a9U, 0x3d283afcbed40fd9U,
  0xbcac89cb3d20761fU, 0xbcaa1f613e863a53U, 0x3ca4f31ebcd553fdU, 0xbdc0d1693da4ddfdU,
  0x3d0449823d49cee2U, 0x3c493acb3e1f28e4U, 0xbc8772843c555d70U, 0x3c96928bbd3934faU,
  0x3bb13c5f3d9c7100U, 0x3e4be1273db6ce87U, 0x3bd0bb0fbd3f7ebcU, 0x3ea084473db9dc56U,
  0xbe9e3b76bd926e61U, 0xbd185f473dbfe7f3U, 0x3daf26b13f071885U, 0x3e13128fbeb25e25U,
  0x3d1326e9be326468U, 0xbe611e48beb3d45aU, 0x3d9fbd68be74e1f9U, 0x3df0dc763d225385U,
  0x3e9942743f0e06fdU, 0xbdb63497be021da9U, 0x3cb82b7dbe95c104U, 0xbdf5f5b6bda18b3dU,
  0xbe8875ab3cdbe207U, 0xbdff2a6dbecd226bU, 0xbbd6de933e1008d3U, 0x3f2cc2973cbcf8f3U,
  0x3df448293bf3d406U, 0x3d759419bec30db8U, 0x3dba5491beb084b7U, 0xbeb60a7dbed96538U,
  0x3f46561abe3c08aeU, 0x3ea2c3c33e52effeU, 0xbc8c3b10bda52ee7U, 0xbf4240df3d366d2dU,
  0xbe83e29a3ea6b44bU, 0xbda5957abe173b45U, 0x3ca8b0123e2efb8cU, 0xbdaac259bc3cef89U,
  0xbe1eb961be0909d7U, 0x3e30aa453ca24088U, 0xbda2837b3d861a92U, 0xbbbf9af1bcf5494eU,
  0x3eaeed86be045c43U, 0xbd1a844dbf1fbc8dU, 0x3db9cffd3e14973dU, 0xbe0f0036bd1c5c71U,
  0xbd18593f3e56e4d2U, 0xbea9298c3dd89baeU, 0xbd7f198bbe26476bU, 0xbdd8978f3cfa2fd9U,
  0xbdba3a38bdd80cf9U, 0xbd5595f73e16f3cfU, 0xbd8fdb1a3efa771fU, 0xbe3ae0e53f21fbb8U,
  0x3e7f514d3d9d8fefU, 0xbd9c73e1bd9a383cU, 0x3da46c023e42e4d4U, 0xbe68e74b3d131ec3U,
  0x3eb6902fbe53a553U, 0xbda3a89b3e3b3c12U, 0x3d6adb69be05e769U, 0x3e936e393ebd4a0bU,
  0xbed6067a3d5d3ef3U, 0xbe2ae2b8bf0771a1U, 0xbd4989debe5903dfU, 0x3f594f0bbd818845U,
  0x3e56914bbd827e83U, 0xbd49006e3e7b534aU, 0x3dbe836fbc1ab8c6U, 0x3ded7404bd5c403aU,
  0xbde0d4343dc66006U, 0xbee938ab3d83ecb1U, 0xbd1cf2b6bc6862c1U, 0xbe8b5621bd0f6533U,
  0xbf37ecfe3dd658e7U, 0xbb764a653ec140c3U, 0xbd0618793cbdabdfU, 0x3de3c00e3e1ece90U,
  0xbdcc5e88bd162e2fU, 0xbdcd99563ea7c693U, 0xbd80a7a53e84dfc1U, 0x3e1d13edbcfc6b07U,
  0x3e7cd4423bb448a6U, 0x3dae6486be9c2df9U, 0xbd96e6cdbdc9b754U, 0x3db4281bbe79e2b4U,
  0x3e320172be6feccbU, 0xbf4c39233ecb29e9U, 0xbc3128843e78cf81U, 0x3df6216bbd4dd17fU,
  0xbe8efc7f3e693150U, 0x3b09cd9fbe22a878U, 0x3d87c6b0bda6bf2cU, 0xbe7f97b3be798d6fU,
  0x3c8f51433ea4c241U, 0x3ed6c6a23e4f9122U, 0x3d9d54c13e2bdc74U, 0x3d77732fbd5d1353U,
  0xbed13f30be6546baU, 0x3cdc86333e73c70fU, 0xbdb18df53f39a383U, 0x3d22f3893ea973c6U,
  0xbf064fe2bed21a68U, 0x3e9eb86abe1a26b2U, 0xbd54568bbeebf69dU, 0xbf1493703ad6850eU,
  0xbe973011bf2c0935U, 0x3cd45512bdc9f8c7U, 0xbd2c9c923e6d751aU, 0xbf58c16fbecf14acU,
  0xbd2011f7bf24f093U, 0x3e719c83bd209ab9U, 0xbbef08c8bec34189U, 0x3de453f03d60ddf5U,
  0xbecbf6e53d381b3aU, 0x3c58c64d3f16a74dU, 0xbd297cb6bcf06d90U, 0xbf238109bd0f60aeU,
  0xbd8860033c9e3421U, 0x3e65f192bdfe4e75U, 0xbd9c02093e8489cbU, 0x3e4a36613c24fd39U,
  0x3e1d50b23e064a71U, 0x3bdc65e23c7910e5U, 0xbd834c453f542a09U, 0xbdf77b883e8f02f7U,
  0x3debb9e2bd54b44dU, 0xbeb100a5bd1f0479U, 0x3cd85a403d71f6d9U, 0xbbbfa80a3da67c61U,
  0x3ea87b3f3f22eb49U, 0xbce430203f3dfb0bU, 0x3b3ae0f13f563fb5U, 0xbe1f8abe3e3190f9U,
  0xbf1592fbbe02b0beU, 0x3e8c1b133d465dafU, 0xbca617463e4f0019U, 0x3e32aac83d83b1eaU,
  0x3e14641d3df7de78U, 0x3af6cab6bde2f43bU, 0xbd9b36b93ed27faeU, 0x3e7d86f73f81ea53U,
  0x3e0991e03f040474U, 0xbd836c45bf4ecf45U, 0xbd76a091be5c76a6U, 0xbe9a77f03d6aea4bU,
  0x3e060001bfe8b326U, 0x3d8343f1bea9d6aeU, 0xbd1891313d07ae94U, 0xbeacccfa3e877984U,
  0xbe1bb163be7ae180U, 0x3b467c4abd67d421U, 0x3bd93bea3f032b4fU, 0xbd4b266a3dab003fU,
  0x3df69521bd662a52U, 0x3d9a88f7bf09a2e6U, 0x3d8542503d0773ddU, 0xbe88fa7abb960606U,
  0x3ed9af2fbe1ae51bU, 0xbb649f1fbdc094b9U, 0xbd6942353ec878f8U, 0xbe33fbb1bda14ed7U,
  0x3c810d9b3d185740U, 0xbd5276b5bda867ffU, 0xbd8560453e78abf2U, 0x3dd83f6e3df88facU,
  0xbee7b496bebec2d5U, 0xbe418af8bd9de7f5U, 0x3c855665be5cc027U, 0xbd889de9bce7204eU,
  0xbe82c53dbec55b0bU, 0x3d681a4d3d008d27U, 0x3be680df3f000f93U, 0x3ea79bbe3f928f99U,
  0xbe1ddbc63e279739U, 0x3c3dd7c1beff55e6U, 0x3d0c038bbdd8ecc7U, 0xbe9f18bf3d7fe63dU,
  0x3f1a29723e55ca4eU, 0x3d23e665be154df7U, 0xbd9d28ecbf313654U, 0x3f5600853f93fde4U,
  0xbf6d0fe43f1f48b6U, 0xbe36fc813ed9acf2U, 0x3d1fdb07bf481a8aU, 0xbf26eded3dd04913U,
  0xbf8b0453bf5c4622U, 0xbd1f01cfbea25f9fU, 0x3d711d64be576fb0U, 0x3ebc0ee43db46f3dU,
  0x3dbd4ab6be3de573U, 0xbf22b4a7be1e5da2U, 0xbc920d46be52a434U, 0x3db39e563dce785aU,
  0xbf290387be55c9d3U, 0x3de9d99d3ef20d3bU, 0x3de17c113daba773U, 0xbea4c3e6bceca90dU,
  0xbe2d1f3fbe4cc70bU, 0xbe27cd6b3e174d0aU, 0x3d8f395f3d99f43aU, 0xbeada2fbbcc28209U,
  0x3e42fce0beb5a281U, 0x3dc10a4f3e50bd0aU, 0xbc1ce12cbdd08a74U, 0xbeb947c43d651cd4U,
  0xbc9441d1bdfe04efU, 0xbe24c76ebe056d73U, 0x3de8c09cbc9be795U, 0xbdfd87523dbfe3adU,
  0xbe9398b73dccb64aU, 0xbd1e618ebda05476U, 0x3c9b7a163d591f33U, 0xbda2d7ee3dfa72eeU,
  0xbd33e04ebeaca673U, 0xbf25a887bed1c0aaU, 0xbb3f53c73c33020bU, 0x3d3534b13d282bc6U,
  0xbe25fd303de013d8U, 0x3d9eb9973e055e76U, 0x3913ec26be3703ffU, 0xbc4971c03e94b897U,
  0xbe0a68eabe643cf7U, 0xbe74bfebbe49b674U, 0xbc39f102beae4bf5U, 0x3eddc4ca3de49cf7U,
  0xbeaca6aa3f15d0fcU, 0xbd41ff7f3e863c61U, 0xbd4928bfbe6b1d2fU, 0xbe68ec7ebf1fd244U,
  0x3ee24c973f90e997U, 0x3e8875bc3eaebeddU, 0x3dc10e2abccc0bb5U, 0xbf001c553c1bdc99U,
  0x3d027e133e352299U, 0x3c9d41c5beaff79cU, 0x3d7724a83ec4b187U, 0x3ec0a4cd3e17ed41U,
  0x3e7bd8903da9d897U, 0xbe98e98abe6383d1U, 0xbd0b6f33bc82cbcbU, 0x3e402a3a3dc3802eU,
  0x3e7685e63ed8d015U, 0x3dd06608be907710U, 0x3c166713bc6004faU, 0xbe85dd77bed6bd81U,
  0xbc7cbd333f001d2eU, 0x3f53252f3dc4c102U, 0xbd0f459b3d4e6e5cU, 0x3d2003973da84e9aU,
  0x3de2f5c23e70a21cU, 0x3d7ea5ecbbb78e48U, 0x3daacc933c6911bbU, 0x3defe3623e0bf11eU,
  0x3d0c7e973ef21117U, 0xbe521c88bec1c08cU, 0xbcb9b16a3e97d18fU, 0x3ebc4ab8bd07b834U,
  0xbdab72673e4fea39U, 0x39e784123c63d914U, 0xbd582e2abdc6fa0aU, 0x3e4038073e17c535U,
  0xbe180b34bd292a97U, 0xbe4a60e8bd38ac65U, 0xbad48cc1be10ae30U, 0x3e7d30debd558b2fU,
  0xbe27f9273c9e39ccU, 0x3d7a09933d4a6b8cU, 0x3c82280f3c3b7c0aU, 0x3fa02090bcd2e4dbU,
  0x3e49f0d83ed8aa35U, 0xbdc4504f3e0410e8U, 0xbd854c40bec4df43U, 0xbf0245ad3c12f9daU,
  0xbcd935853dda4925U, 0x3dc2c4903e82a207U, 0xbc335b683f8d4252U, 0x3f35504b3db17b08U,
  0xbee182eebeb64991U, 0x3f0cdd99be4c533bU, 0xbd24e8b7bed97307U, 0x3ee96a21bd373db1U,
  0x3faf6d9f3e1dbb56U, 0xbd8a19883e80c514U, 0x3d37eb51be34cd1cU, 0xbe5558203f1d56bdU,
  0xbe7c2df4bc9f607eU, 0x3efa85e13e3f41adU, 0xbab20749bcc7b680U, 0x3dd1866dbd5d3007U,
  0x3d7de0613e9d5a45U, 0x3dbe9a14bbbe351bU, 0x3d71ecab3f1e9675U, 0xbde3f6223e7b23caU,
  0x3e4b75afbeec9b17U, 0x3ea014883bd26a06U, 0x3ba84f1e3d7c0303U, 0x3e41ca4dbbf5592bU,
  0xbd294e0e3e8624a7U, 0x3d8480d93ef3629eU, 0xbc3e69903c15c817U, 0x3d9adc21be3fe4d7U,
  0x3f2372debf018bc5U, 0x3e66a9adbd8d32e3U, 0x3d0ee10a3e0d2a91U, 0xbef6f46a3db43922U,
  0x3ee559aa3e5b99efU, 0x3db7ee78bade75a0U, 0x3c4621f43e7cb374U, 0x3f2a1d9e3e932f41U,
  0xbe3b7bf93eae084bU, 0xbdd50073be04320bU, 0x3cb1e48a3e354fdbU, 0x3e628e6b3c9f2943U,
  0xbd5fb4763d8b297dU, 0x3dd133ba3e2ca1a1U, 0xbd6c5993bd4b0df0U, 0x3f1a2fbd3d80c7fcU,
  0xbed7b3a33d91aa84U, 0x3ddc53783e39ca80U, 0x3d24d0d5be923a4eU, 0x3e0dd411bd196c31U,
  0x3d06dc41beb82293U, 0x3de93f9cbf2f65beU, 0xbcceda7cbe9d4cfdU, 0xbcaef6253e951025U,
  0xbf183a6dbe64038cU, 0x3ecb56253df5a6ceU, 0x3dcee8f0be881a1fU, 0x3cf84b513cb76ac8U,
  0xbedddf95bef3ac1fU, 0x3d972958bf1ea0b5U, 0x3dc49b62bed5fa7dU, 0xbe380214beaa5172U,
  0xbd822fa4be44b5abU, 0x3f1824463e6422d5U, 0xbd02ac04be3154eeU, 0xbf185d563d1fd52aU,
  0x3d994a78bf15728fU, 0xbd0fdf4fbece8068U, 0x3ce3bded3e193f11U, 0xbef65566bddc136dU,
  0x3e454a87bd183565U, 0xbd8963973d856168U, 0x3d4f88613e30736eU, 0xbface5473ca17a0eU,
  0xbe8845d23ec712baU, 0xbd5fa14bbe824d66U, 0x3d12ea3f3f0d0716U, 0xbf14cbc53de52452U,
  0xbf597b62bf23744aU, 0x3d3b51c5bf365c73U, 0x3def6bc8bd1e7458U, 0x3e0f90ebbd73667bU,
  0xbe4d82c33d7d249cU, 0x3cd8352c3e924ae8U, 0xbd189dedbe9fbddcU, 0xbedb10e1be845cb2U,
  0xbee3ed3cbebd4e98U, 0xbe43670b3dc131b2U, 0xbd752856bda00b6aU, 0x3e1195ecbd4bf755U,
  0x3f0a96acbe79e535U, 0x3d8a48babe730e89U, 0xbd46f6edbe151298U, 0xbe85a15e3d0cb14fU,
  0x3d6dfba83e99cf91U, 0xbe7e9fa2bdcad11eU, 0xbd65dc573db70ba8U, 0xbdf9f6d03d0328dcU,
  0x3ea13f01bdd41296U, 0x3bdfda75bdbb33c1U, 0x3d21fa74bf0bd73dU, 0xbda4bdbabe0d1825U,
  0xbdef343cbda99c22U, 0xbdca64803f19f8c8U, 0x3cd8f0dcbe20d62aU, 0xbec090323d8efa42U,
  0x3ca1ee0cbef67ab7U, 0x3dc1dcdebe2898a2U, 0x3cd4d1d0bab22e18U, 0xbd8e9ad2bf50db6eU,
  0x3f18fac9bf426495U, 0xbe6edc8e3f053596U, 0x3ba4060f3ee78726U, 0xbdf3b59f3d845507U,
  0xbf06ea11bd4c96b0U, 0xbc6f45f03ef2f2a1U, 0xbd1d705b3e8c5ed6U, 0x3ef0d2d53e838221U,
  0xbddd8248bf0a8162U, 0xbeabebdcbec47ec0U, 0x3da30c803db93965U, 0x3f10e6bdbd593e2eU,
  0xbda4d91e3d3dc657U, 0x3a654c1dbeaf81b0U, 0x3c8e729fbd9cee24U, 0xbea8a09bbefce9cbU,
  0xbd42185d3cfd5723U, 0xbeda63a8bd093101U, 0x3dbf4956bdb400c3U, 0xbe7682433d7fa582U,
  0x3f0d0c4abe99ac96U, 0x3cb7d4813efabb32U, 0xbd4d9430bdf4d385U, 0x3e50b4093ea96056U,
  0xbd9420bcbda89395U, 0xbed772c3be40ab02U, 0xbd57afc1bb45606fU, 0xbe9001be3b3ff4ddU,
  0xbebd50fd3ccdee9eU, 0xbd4b5f1dbd74626dU, 0x3d9994aa3cd652caU, 0xbce0f74cbcc82667U,
  0xbd5119a33cd74649U, 0xbeea750e3e1a2bfaU, 0x3cc3ef49bdc0add0U, 0x3c9cee643ba61bafU,
  0xbf1ffbb23e040822U, 0xbd91a3ce3e9bdf4aU, 0xbd6962193d8ba562U, 0xbd4374833e006825U,
  0xbd31b9fabe46470cU, 0xbed309dd3df46244U, 0xbd00ac2c3dde43b6U, 0x3cd01c2cbbeb051eU,
  0xbf1689a33f1e6001U, 0xbd86251b3f0e680dU, 0x3d6c45953debce39U, 0xbeb1ea6fbf36e356U,
  0x3cbbc0273dbbd6d3U, 0x3ed08f953dd0427dU, 0xbd3f06b63f2af874U, 0x3f21018b3d1116c0U,
  0x3e0e13d23f285e52U, 0xbd91e0dfbe9e69aeU, 0x3c6fd9c1bf463636U, 0xbd313849be985da3U,
  0x3d0de5243d867238U, 0x3d9c18ad3be219e3U, 0x3db2676dbe26d5b8U, 0xbe82483cbdc6c03eU,
  0xbd18e9a1bf04e069U, 0x3cb742a4beaa9d06U, 0xbd264d803d877fc2U, 0x3d44e6d0bd44e656U,
  0x3ea0f185bed29e3bU, 0xbebba765bc863affU, 0x3c8ea7fdbc31461dU, 0x3e40a821bd31214eU,
  0xbe310b0e3cf1dcbcU, 0xbd3cc93ebe14debeU, 0x3cfc6494bf2694e4U, 0xbe8efae53d1bd114U,
  0x3d5aec94be92dd41U, 0x3e4483c33d1ee7d0U, 0xbdb1b621be83b091U, 0x3de3b3a5bccfbda0U,
  0x3da3dc6abe98508dU, 0xbcc56670bef54715U, 0xbcae7fc73c338419U, 0xbe06b83d3bf871eeU,
  0xbe4ea5f5beab8c94U, 0xbdcc7534bebeac31U, 0x3d44e78abee1c580U, 0xbc4c821abda296e4U,
  0xbf12bbe63eeb74bcU, 0x3cc990df3ef36c18U, 0xbd3a61883eda3bceU, 0x3eb4293abede4574U,
  0xbf1b80293ea814eaU, 0x3f01a8933e2b46efU, 0xbca265be3e9b3b02U, 0x3ed4b283bcdf1c58U,
  0x3f897feabe4509e0U, 0xbdae4fc53c1ff8a4U, 0x3c711c71be03eb06U, 0xbd8a55fc3eaf4af1U,
  0xbbc481793e4d46eaU, 0x3d36bfad3f127c6eU, 0xbd94b9f9bc375173U, 0xbea42964bd9b19b7U,
  0xbe4a7b973e72288cU, 0x3d1721ea3e63012eU, 0x3d21c4cf3e935132U, 0x3e1bc060bdf66890U,
  0x3d212c033ee291c4U, 0x3d2fb5183db8b8e8U, 0xbcfdb8b63dcbe443U, 0x3e7e583bbb0538c2U,
  0x3f6810dc3d32b411U, 0xbdcb816d3de14202U, 0x3d966764be9fd851U, 0x3ed52473bd9082fcU,
  0x3d033da83dbcbbfcU, 0xbe7031a2be6f7e3fU, 0x3d8f1a303e6c52e1U, 0xbddb02623c83e720U,
  0x3ee7c36cbdafeebbU, 0x3dad1e603dfa1f86U, 0x3d8140ed3d2769b3U, 0x3e0363293e203d78U,
  0x3d0d943abf153fccU, 0x3de395d6be40e671U, 0xbd96d4aabd867071U, 0xbe05ae25bd9b338bU,
  0xbbcdb71abe4ecbd6U, 0x3d730b22bedf818fU, 0x3d5fc99e3d6a15d1U, 0x3f0ae091bd78fbfeU,
  0xbebb8551be569ad1U, 0xbf12e7463e05260bU, 0xbdac93c93e1740e1U, 0x3ecb7fafb925d912U,
  0x3ea1f781be1a1a08U, 0x3ca94802bf115a42U, 0xbd75c9ae3f00cce2U, 0xbe40ced43d2b62f2U,
  0xbe65fe52bebe0457U, 0x3df94e78be955301U, 0xbcd04af6be151620U, 0xbe3021203d9a8785U,
  0xbee831fd3f2df373U, 0x3d31f9523c433019U, 0x3c152e18be1b94daU, 0x3f30a238bd1200a0U,
  0x3e572ec63f36046fU, 0x3e2ac9fd3ead76bcU, 0xbd2cea963ecfb113U, 0x3f192599bd8f244dU,
  0x3ebe02ba3e16dc9eU, 0x3d4af44cbe4ad857U, 0xbcb466aebc525cffU, 0x3f83515cbe5dbe01U,
  0x3f1593debee3bec2U, 0xbeec40dfbcd4c0adU, 0x3d4c388ebd75200cU, 0x3e2223e23d8fb9d5U,
  0x3e47ed11be58535bU, 0xbc8cd261be709adeU, 0xbc405d093ee724d7U, 0x3d9559c7be813060U,
  0xbea2aae23f2a0ef8U, 0x3e38275cbe686ba2U, 0xbd3b885e3e1524b0U, 0xbf5b0ec3bc63973fU,
  0x3f031fc6bd94bad0U, 0x3cf696a5be674b02U, 0x3d9da0ae3ee34c82U, 0x3e4b3ec7be573c38U,
  0x3d235871bf2b6bf0U, 0xbbbdeca43e230f8fU, 0xbda0cae93d46be90U, 0xbd136b1c3d8f988bU,
  0x3ded1a31bd8d5e6bU, 0xbb87ca953e2a312fU, 0xbd26ef3e3df0bb35U, 0xbea67de8be93bb2cU,
  0x3d06c5fcbef27541U, 0xbe59387b3eb9d4cdU, 0xbcb494c23d0174a0U, 0xbbdd7b21bc98d661U,
  0x3ea142093ab0037cU, 0x3d8120233e80ec1aU, 0xbd8c1f093d0c7956U, 0xbf1d99cdbd6e57e4U,
  0x3e22c88abe8ef40bU, 0x3eefea02bdee62caU, 0xbb96037dbe992a69U, 0xbce160a7bcc767d8U,
  0xbf456b003e2e35d3U, 0x3d72ea9c3cfb8c14U, 0xbd28544a3bb1a0f2U, 0xbd9ff738be5cd7f2U,
  0xbe69a6aebe024d29U, 0x3edb43e83e0f5b50U, 0xbcf78fa6beaec3e7U, 0x3e8144c13d1582eaU,
  0xbe1faef7be1068f4U, 0xbcb5906a3e8722beU, 0xbd51dadfbf0244eeU, 0xbb628d7ebf7b528dU,
  0x3ee0ad493d88d323U, 0x3eb45f923f6f393aU, 0xbd9aef4dbd12b760U, 0x3e9304d73d8e1edfU,
  0xbef1b3f9bec11f6eU, 0xbdad3be53eef79edU, 0x3d9b53c5be633d0bU, 0x3ef2f8cdbe393a02U,
  0xbc1b8649be011392U, 0xbd536a65bdfbbc43U, 0x3d7c206ebe2c6d04U, 0x3d54465f3c3f5d01U,
  0x3da4e3e8bcedb1fdU, 0x3dad68ec3ea88b8fU, 0x3da94ee8bbc84611U, 0xbe84705ebdc76a9eU,
  0xbe1f908a3d870646U, 0x3e9185df3e03e393U, 0x3dc96feebd79c8cfU, 0x3cb8ce3f3cbf4a7eU,
  0x3e825368be375708U, 0x3d6b0d4e3e868702U, 0x3bc8191c3d40bef3U, 0x3c778e743e0d11e4U,
  0xbeab1cd23dfa7355U, 0x3e218f44be552281U, 0x3dcbd83ebea0ae40U, 0xbdc43baabd5eeaefU,
  0x3e5fb3dabb3a5f81U, 0xbd6dfa683d88cfe3U, 0xbb2c5b30bcbf190cU, 0x3e4dc6403ea4294eU,
  0x3cae08db3e16001fU, 0x3e8457953e95ba71U, 0xbd9e9a0c3dd7bc17U, 0xbe4b230c3ca2ddc5U,
  0x3dc0a383bdaa279dU, 0xbb9bed9f3d0d65ecU, 0xbd820e4abadeb7bfU, 0x3f0704a1bd847b9bU,
  0xbe4a1efabd18d5c2U, 0x3e34dd343f18d909U, 0xbd8e6ab2bdf05e6cU, 0xbf1839003c38a702U,
  0x3f05cde8bf0fd5bbU, 0xbd7b56d8be9f8f47U, 0xbd655028be75bb50U, 0xbe14e7e1be4d52bdU,
  0xbe008b203f3b077dU, 0x3e75a1803eac4583U, 0x39ecdc5ebd31b94dU, 0x3d8557013d4ba754U,
  0xbe3a98343a2ad35dU, 0xbd1de5debd34a743U, 0x3dbeb9febe09fd74U, 0x3f109c7cbec3bd6fU,
  0x3dc84e0cbe3db9abU, 0xbe5f5144bb389d32U, 0x3cf542a9bd37934fU, 0xbe10cf173db637a8U,
  0x3d00fd1abdbb1e71U, 0xbc791d8dbdf2a090U, 0xbc7d46d2be62434fU, 0xbe4c6df8bef08e7fU,
  0x3dacdd9cbe8b990bU, 0x3ef3c1d13eba091fU, 0x3dbb3c4ebc0e6ae8U, 0xbe711e223da18e06U,
  0x3d9084e2bea6e000U, 0xbcf3095dbebd5e28U, 0xbd4def41bea97056U, 0xbe572beabedb3405U,
  0x3d9e83da3bf64623U, 0xbd469b393e3f61bdU, 0xbd776421bcd8b1e8U, 0xbe3293413d0ff61cU,
  0xbe77dfe9be3c52e5U, 0x3da489d63d2a5799U, 0xbd59a9683e02ebeeU, 0xbe68d3343d821a5bU,
  0xbe1434143f05189eU, 0xbd3bab693e3f6af3U, 0x3cb985c73eef6623U, 0x3d839a25bd1e8e2dU,
  0x3ea5af7c3e9b9874U, 0xbdaa590e3da6ec7cU, 0xbd71ed3f3c96ac35U, 0x3d85a4143f272d5aU,
  0xbd07eee0be75b59dU, 0x3e91291fbd320172U, 0x3ce913d93e9219e7U, 0xbda6ba49bda5f6c4U,
  0xbea32cc23e4bf521U, 0x3d847ee43d907423U, 0x3d9e17083ebc24d8U, 0x3e113407beab6d2cU,
  0x3ea310903df57216U, 0xbe730aaa3d6b0e16U, 0xbc2371923dbe991aU, 0xbd87b50b3c8be21aU,
  0x3ea80f923eac28abU, 0x3d893bec3f04702dU, 0xbd250564bec374a6U, 0x3e45a48d3d4c4181U,
  0xbea9c7c43d747185U, 0xbeb1f5143e490860U, 0x3ca762bcbdc4a77eU, 0x3dafe240bd68be88U,
  0x3ea5c736beb04a49U, 0xbd7d7911bdc06809U, 0x3d80aeefbed3dba4U, 0x3d7e9c7f3bf6df00U,
  0x3e14d801bd9fd5daU, 0xbf0838d53dfe92afU, 0x3dbddc76be493312U, 0xbec40c2c3d9fb94aU,
  0x3e8bee7cbeaf25d5U, 0x3dcf2f0a3e495fc7U, 0xbc2ecb1cbdf3286eU, 0x3c0b83d9be0ef6c2U,
  0xbe1d8bad3c46ca8bU, 0xbe27a0e2bea8fcdbU, 0x3d17e60cbcfbf4efU, 0x3ed50d783d154c48U,
  0xbe15aad0bd557a8dU, 0xbd41da383e87da81U, 0xbd2cbe72be8e8832U, 0xbecb71023f86fe6aU,
  0xbe36e405be566271U, 0x3f0cf7e3be828164U, 0x3cffb1893e916812U, 0x3dc1a3c93d8e344eU,
  0xbea87b753ee9ce41U, 0x3d5110c2be52ff34U, 0x3d9409703e65b865U, 0x3e8cc5293c98e67cU,
  0x3e1280953f15c383U, 0xbe754218bdf49f5aU, 0xbc83fb113cf6cd33U, 0x3d38c2f5bb86259eU,
  0xbe3d625dbe192041U, 0x3b9504a03bd3e1b1U, 0x3d5d9472bef0499eU, 0x3e7c1ebd3d64f984U,
  0x3d90039c3d33fe77U, 0xbe5cf436be9b8d7eU, 0xbd681d163d988c3cU, 0x3f50801f3d3595d4U,
  0xbe4d791fbe82ca2eU, 0xbca5bfa5bb8520dbU, 0xbdb34f60bef2d258U, 0x3e996cf23e3a2750U,
  0x3d8e461b3e91cb20U, 0xbe160f63be813549U, 0xbda2ad4ebdfd07c4U, 0xbda43f00bd8420faU,
  0xbc9fd5053ebd9038U, 0x3d1098763d765fb0U, 0xbd66ffdcbe958f79U, 0xbdb4ec1fbf03fac5U,
  0xbf203675be862537U, 0xbe96c4653e208b7aU, 0x3dcc4b7cbe1d6e9eU, 0xbebd2e24bc471b6cU,
  0x3e3db7fe3ecfee5aU, 0x3daeffd8bdfb9e99U, 0x3b8cf2a4bdb7cf50U, 0xbf2858bf3eb94c89U,
  0xbf1a2c17be042c50U, 0x3e8aaffbbdadab6fU, 0x3da721223ed64e45U, 0x3ec5132dbd937aecU,
  0xbe2cf2923e3ede07U, 0x3ceaf979bde21c8bU, 0x3d7a7f8abf09f83dU, 0x3e979d323d60d275U,
  0x3d929d023eb2e3d4U, 0xbe9aca05be53ef47U, 0xbcf03da0be35f482U, 0x3e8becffbd3fbb56U,
  0xbf17c6843d0d127aU, 0xbc889bb93e5af703U, 0xbcda3e5ebee42c3eU, 0x3eccf0903ebfb76cU,
  0xb9ed4e853e5986b8U, 0x3d47f779be4f48a7U, 0xbd8bf69abe2ab463U, 0x3f0b1a8bbd805010U,
  0x3e30d24b3e8b6148U, 0x3c75167ebeb96602U, 0xbc90f979bf18dae2U, 0x3ebd4a40befc0fa6U,
  0x3eaf66d83f1517e5U, 0xbc38a431bb3c3928U, 0x3af147a43dcf4e9dU, 0x3ec1745d3d6d881eU,
  0xbf1bdb3fbe4fd809U, 0x3d96d0d23e25cfc9U, 0xbd0d2edcbd785df4U, 0x3ca505d5bed58160U,
  0x3d29af163f2d66e4U, 0x3e7ff03bbee3dcf4U, 0xbd8401543f253bf2U, 0x3f56ff56bc6737a6U,
  0x3f6639a1bd6ccbdaU, 0xbdb54e893dc729e7U, 0x3c8670dfbc454f2dU, 0x3cedfcb13c2a1f05U,
  0x3c8d6dd83d058777U, 0x3ceaa9f83bff3ad5U, 0x3b77c557bb40944eU, 0xbe2811c3beaf3728U,
  0x3e83640f3f1271f3U, 0x3d5991c43e6ed1c9U, 0x3e72b437bebf7f9eU, 0x3dea98573ea697daU,
  0xbe9abb4cbe9fd6c2U, 0x3d0c167f3e8a9a95U, 0xbdfcbab63e8375d5U, 0x3ed33f71bf1dd14cU,
  0x3ec2b11f3e0b65ffU, 0xbd7e38323e9cabbcU, 0x3eb511b4bf018b4fU, 0xbf2132bd3e50e12cU,
  0x3e693bea3ec1b140U, 0xbd875b8a3ee922b9U, 0xbe960e9a3cc73934U, 0xbeea3ca9bbd1f200U,
  0x3f40e407beb529adU, 0xbe83192b3f074e54U, 0xbdd76687be7096e3U, 0xbebdf8a1be28f67cU,
  0xbe92c5babe9f9070U, 0xbda1d1a73e818a2cU, 0x3e63b84d3e93c337U, 0xbf3286063e9ff70bU,
  0xbeaca87ebe4cba57U, 0x3dd2c6403dcd7773U, 0xbdcd909c3e30bde2U, 0x3eb4b9a2bf1f71cdU,
  0x3ec6b5d93dfdb011U, 0xbeceddacbce54c23U, 0xbee7b11cbe4b4c10U, 0x3f36cd8ebe88f6d1U,
  0xbea867aa3f3e931cU, 0xbe3b1d36be97fa17U, 0xbef4ad3cbd15836fU, 0xbed66638bdba8f47U,
  0x3f22123ebea974a9U, 0xbe829dd03f16ad3aU, 0xbea84072be80661fU, 0xbf414a65bdc6ef73U,
  0xbeb2c707bf175ecfU, 0x3ce622933e6fed68U, 0x3e99775fbd35364dU, 0xbf23aefa3e07f266U,
  0xbedded4abacb0cf9U, 0xbecd367cbead0b02U, 0x3f30c0d6becc89b3U, 0xbea602333f2f137bU,
  0xbe2f3701bed652a8U, 0xbebced17beb1e9aeU, 0xbd6cd7c73e80223cU, 0xbebe79f43e942c7dU,
  0x3f19c492bf4af261U, 0x3f04b34f3d808f36U, 0xbd10e346be8242c1U, 0xbe5c05683ec5546eU,
  0x3f20a494bebe1b65U, 0xbe8b4a36beea89feU, 0xbcae2b05bed0524dU, 0xbee006b8bc90b742U,
  0xbe311bd6becaa69eU, 0xbcb51d003e823bd0U, 0xbe2342373e2fd08bU, 0xbeb7d1c9be181c61U,
  0x3e0eeb333d6c1771U, 0x3e8fc1d6be2f0b9fU, 0xbf2bf84f3ed0932aU, 0x3e853620bd7de54eU,
  0xbd8336983e92255eU, 0x3e8bff353e49a542U, 0x3e2fcf5dbed5ddeaU, 0xbf1ac3563e14d099U,
  0x3e3a4c483e8399deU, 0xbe4a11633e4b3668U, 0xbe42acc7bdcbab53U, 0xbe2e4b4b3ed5772cU,
  0x3f0c5deabeeea3b6U, 0xbe0511fdbeb20d45U, 0x3e97ddd23de40ce6U, 0xbdcaf84fbe219e47U,
  0xbeb50a903e72e3acU, 0x3f02ebe6bebefb12U, 0xbe631acabe4d7021U, 0x3caee26cbebbbf01U,
  0x3e6988943cc43f75U, 0x3ed2e2abbe69a722U, 0xbf3386903f0ce8d2U, 0x3e7b9782bd15b519U,
  0xbd8460b73e927c9aU, 0x3dbfa9cd3e760707U, 0x3ebc02adbdbfa738U, 0xbf34cd563e8c2269U,
  0x3ea7bad9be7535ccU, 0x3cdd724f3ecc4e62U, 0xbe945e26be6d593fU, 0x3e38b79b3ea0043dU,
  0xbcfa204c3e40d15fU, 0x3eb3b913bf0cf51aU, 0x3ea6b4843e57edb9U, 0xbf344badbe0af28cU,
  0xbe8291e5bef719e3U, 0x3d551fab3e1c30cbU, 0x3e9ccf9e3e5ecb50U, 0xbf0601cd3e0e1217U,
  0xbd2897fa3ee9b4f3U, 0xbeca8aa4beb9c535U, 0xbd761a92be3555dcU, 0xbdd1d43d3eb54e3dU,
  0xbe479612bebc6458U, 0xbee621ebbda9adccU, 0xbeabc7eabf16bbb5U, 0xbe4428023e0643bfU,
  0x3ee47cf0be32aa57U, 0xbf3493de3b6c8858U, 0x3e73fd213ea16754U, 0xbe5ecfc2bef8e464U,
  0x3e0347b0be6302cbU, 0xbe77cbd03f098051U, 0xbe05f4c6be8372a6U, 0x3f13b3283e23c9aaU,
  0x3e631476bdb47ad9U, 0x3eacc618be43899fU, 0xbec868fe3dd75db8U, 0xbe6c0067bebb49cbU,
  0x3e4ae3693e8d25d5U, 0xbecaac85bf18b6a6U, 0xbd58a263be9aeadfU, 0xbe28da173f1d47b1U,
  0xbe73ac21bea99bbfU, 0xbeb4e5263db40efaU, 0xbf25074cbe34ca6eU, 0xbe2f90fe3e8f8298U,
  0xbdb81c9d3f0da806U, 0xbe6a4531bd33d74aU, 0x3db9e8e03dbc482cU, 0x3eb57676bed42c2dU,
  0xbf1aedec3e89aa4bU, 0x3e7adb3d3ee1f143U, 0xbdccac183eee3505U, 0x3c1cdf20be87d15fU,
  0xbeaf80123eba2d45U, 0x3f2b0aa8bea100b2U, 0xbe7d2e6abe9bd73bU, 0x3dd3e1a8bf064763U,
  0x3ea680cb3e69f494U, 0xbe94a8ecbe0479f0U, 0x3ca08ab9bed49a41U, 0xbf0e14ea3f2630a5U,
  0xbedda2babe534bf6U, 0x3d87c3d53e1f85e3U, 0x3e521dbbbe1b9648U, 0xbf29c3693f0addfeU,
  0x3eb122ed3eaea0dfU, 0xbac43e683eac11b9U, 0x3e51cba73e63acb6U, 0x3ed2d8c5be34789cU,
  0xbf1ec6f83ef382ccU, 0x3e859cd0bc8aa1bfU, 0x3d7009da3e4308a3U, 0xbeb78dda3e5e0737U,
  0xbd600a7abe01bc90U, 0xbe1b96153e81ae26U, 0x3edc3165be5c52b2U, 0xbedaf9803e6b35a5U,
  0xbd8ca9b0be999aecU, 0xbea2e492bdba0d18U, 0x3f63b129bf00d8edU, 0xbf07701f3f1cc8e6U,
  0xbe47a368bea6192eU, 0x3dd07bd5bed37161U, 0x3e82c1953f27d922U, 0x3ed41aaf3e609e24U,
  0xbf58244c3e00548dU, 0x3ed89151bf77a6ecU, 0x3f131aa33d810264U, 0x3ea02d393f29301cU,
  0x3e3000b3bdc8df61U, 0xbe87e11a3d6eaee9U, 0x3f5eff07be6ac35eU, 0xbedb537ebe16f8f2U,
  0xbd25a402bf0d4b8aU, 0x3d1871d93d90b117U, 0x3e9067f73d2241d1U, 0xbf1134773d08fcdfU,
  0xbec213a7be84097bU, 0x3d43f97e3e384653U, 0xbeadbc4f3dc03e4eU, 0x3e4a0f01bf06e692U,
  0x3e55576cbb4bb1cbU, 0xbe75e7c0be98bb62U, 0x3ea4e2d73ed3c4a0U, 0xbe47e9523e64dafeU,
  0x3e95930cbf11512fU, 0x3e584f743e83daa9U, 0x3d9f99133e566dacU, 0x3ee3b28bbdaa8675U,
  0xbf34fcdf3ece0e24U, 0x3e81bbc4beb5cdbcU, 0x3dcd66e93ec842faU, 0x3bc46a34be83aa64U,
  0xbea715413e6c52b8U, 0x3f19552ebeabdbd6U, 0xbe4dc98dbeb26898U, 0xbc662216bec6f7acU,
  0xbe83d95dbecf649dU, 0x3b5229273ecdfb7bU, 0xbca93da53e8913eeU, 0x3ea86adfbec19fe3U,
  0x3ddbbfbc3e96dfe8U, 0x3ebb51d73ed5c2bbU, 0xbd923d04be985476U, 0x3ed5cfbabeb822dfU,
  0xbeb1cbd63eec9c2eU, 0x3d83739ebec0e9bbU, 0xbe89fdc1bece6af8U, 0x3dfe5c2c3e9f7aaaU,
  0xbf0b47103e55ba29U, 0x3e4eeaa7be7f2f62U, 0xbdfc9c373e92914cU, 0xbe3aac9fbe8f475cU,
  0x3ebf818a3f05f537U, 0x3e0aabca3e8ded91U, 0x3e52980abf072af8U, 0x3e24ea803ea8170eU,
  0x3e8d07a93e8c1ae3U, 0xbee07e07befef22eU, 0xbeb1ec2fbe9d128aU, 0xbe792b6a3f07dc11U,
  0xbe75a831be94bbbaU, 0xbe980186bde7ff7dU, 0xbed99e08bc14c742U, 0x3f28e2c8becc73f9U,
  0xbe8c52be3eed9d18U, 0xbda33798be8cfe7eU, 0x3e8c45dd3e2330deU, 0x3db44708bf1b66f7U,
  0xbf066c483e3f1547U, 0x3dd7ceb93ebb0e78U, 0xbe8616573c50c561U, 0xbea3b55cbd8e6661U,
  0xbec18436befb3bd4U, 0xbe0de2453e1d561cU, 0x3ebca46d3e77d461U, 0xbf4d41f53e8a484fU,
  0xbec3e7b1bcb57959U, 0xbed0d07ebc1aaa53U, 0x3f31b6b7bec82793U, 0xbeae88533edf1803U,
  0xbe216b13be6efdacU, 0xbe927236be5aab4cU, 0x3ea5fdfb3eb93491U, 0x3d93241c3e4a630bU,
  0x3e9430a2bf14a931U, 0x3e7613773e5b697dU, 0x3e88b80c3ea9d62bU, 0xbb148e57beacd7b8U,
  0x3eac59acbe7c87d3U, 0xbecff0313f2baad8U, 0xbe8d9077bdea7688U, 0x3ef44a29bec03800U,
  0x3ea5518e3f0763f9U, 0xbf5132f43e0de568U, 0x3ef03e4cbf0bc1a5U, 0x3da2ce1e3eea2974U,
  0xbea435833db48ad7U, 0xbea30310bed39ab5U, 0xbd910e943e33abdfU, 0x3eb8d0513e4a1970U,
  0xbf2453e03eac9e36U, 0xbe92fc02bde65055U, 0x3d70fb893e441d8bU, 0xbe1249673e40fd97U,
  0xbd319271be4f40c1U, 0xbdcfa8993da66f8dU, 0xbd8b0b31be29ff97U, 0xbcf68261bcb1a02aU,
  0xbe5469ef3ed779c1U, 0x3d8a1157be470167U, 0xbe20b388bc6cc962U, 0x3c69892d3e335c11U,
  0x3dd124ca3d97fe94U, 0x3c8b366bbd1e78cbU, 0x3e16bd2abe4345eaU, 0x3e49e7e7bdc7cda5U,
  0x3e22acbe3e34e740U, 0x3db13e2abd823adfU, 0xbdf9cea33e4e2858U, 0xbe36cb87bc8ce5c3U,
  0xbc176850bbce6ccaU, 0xbe90fbadbe1d8abdU, 0xbdcb68513e55f5c8U, 0x3e83f30cbe38a87aU,
  0x3e960823bbe14122U, 0xbd6276253b4d9101U, 0x3e0bc7d0be174bf7U, 0x3d0306593e4d3257U,
  0xbcdf86973eeb8898U, 0xbe4c5dbfbe9484d3U, 0x3dc9e430bfa1a384U, 0xbef7ab72be4b7ee6U,
  0xbf48c1bebfb7b4e6U, 0x3e80746abce2c982U, 0xbeabaa14bf822185U, 0x3f029cbc3c91760aU,
  0x3e841bf23c756fd4U, 0xbd6850d8be83f39eU, 0xbe2d3f05bfb3ab63U, 0xbda80fafbf9597afU,
  0xbed363b83e89ab54U, 0xbe61a1d8bf1675ecU, 0xbd3e1f993eaa8d83U, 0x3e98d7b2bbc520a2U,
  0xbd884572bf44deb3U, 0x3fb8c9d43f840579U, 0xbd355bc9bf698aafU, 0xbe6db71b3dd551b5U,
  0xbdc2e456bdbf0c2fU, 0xbe33ec853eeccfa1U, 0xbe951bf03ef4fc23U, 0xbea48f17be8b7e68U,
  0xbecc889abf938deeU, 0x3e534df93dfe3056U, 0xbf9df0493f359e9bU, 0x3e2bac783dfc3c79U,
  0xbeb6d7883ed871a0U, 0x3e83edb83cf210f1U, 0xbe13deb93d54c325U, 0xbf056b7c3e02f0f9U,
  0xbf0de7833e10d2d3U, 0x3d8d082b3e547378U, 0xbed507753ec66cc3U, 0x3e5acf1dbe9e8cdeU,
  0x3e704de73eb5ea01U, 0x3d839b9c3dce058cU, 0xbe89ee053eb2f49aU, 0x3c29616abec2dd41U,
  0x3ece86283eaac80dU, 0xbe2b6c75bea16ce1U, 0x3ea154903ee0893eU, 0xbe8adfc83ea9164eU,
  0xbde67c1bbeb14f27U, 0x3e4745843eb71575U, 0x3e9921ae3b5e2fb2U, 0x3e9c5ea2bf0022c8U,
  0x3e6cfa93bdea2067U, 0xbd6f65ed3e86488dU, 0x3e4fc910bde56d89U, 0xbe756d663e48f18aU,
  0x3d5f3e80bcec1225U, 0xbd1b85bb3ea622faU, 0x3e58814c3e5cf3a2U, 0x3da7bc86be22e79bU,
  0x3e8fbee63cb1d81cU, 0x3e4cff6f3ead885dU, 0xbd0a1dec3dc4081fU, 0x3cfa67313e070b45U,
  0xbe721c293e44c17bU, 0xbe199901bcb7da29U, 0xbe5d0aef3e9a1a59U, 0x3e8e9767be13ad92U,
  0x3e045a103e31a558U, 0xbe393c883ea2e23eU, 0xbdc77399beb9c7f8U, 0xbe16b48e3ea94652U,
  0xbe65d8cc3e6aff39U, 0xbe33f9d6be125f17U, 0x3db3fe2d3e889a77U, 0xbdde71a6be40766aU,
  0x3e4f8f843ece9928U, 0xbe15e0463dd220b5U, 0x3eaf8b35ba36e062U, 0x3e758242bdadd119U,
  0xbe1ec7323e90b8f9U, 0xbe64c0d43e99f6cbU, 0x3e15448f3e37d64aU, 0x3d6b6cde3d1672d7U,
  0xbdb74a1b3d9520bbU, 0xbea81598bf065209U, 0x3dbce0e23d9c08ddU, 0xbb4c0f903c2d8b87U,
  0x3e6573aa3ec133feU, 0xba4b35953e111205U, 0xbe1e91e8be0bdbdaU, 0xbe831bc53e617fb6U,
  0xbebd18b63e7d39b5U, 0xbe7df4f03e4df047U, 0xbe0b8b8fbd9b45a7U, 0x3f1c65cd3dbeef1fU,
  0x3ee907e73ea2f392U, 0x3f2261f1be53415aU, 0xbda822ac3eabf4c3U, 0x3e22c8a53c39e5c7U,
  0xbddfda853d551b96U, 0x3cbf84183e365316U, 0xbd7bee35be3136ddU, 0xbd22a4ed3eb58fb9U,
  0xbe2bc1a7bef541fcU, 0xbeab6c7e3c2b0c21U, 0xbd9015243ecfac84U, 0x3ef6468bbee2a5d8U,
  0x3e7b8db93ea4e18fU, 0x3e0901a93e47a4a0U, 0x3ec12bb5bf094343U, 0xbda0bd7abb12d402U,
  0x3db1e51cbefd956dU, 0xbd8ae502ba40af94U,
};



AI_API_DECLARE_BEGIN

/*!
 * @brief Get network weights array pointer as a handle ptr.
 * @ingroup network_data
 * @return a ai_handle pointer to the weights array
 */
AI_DEPRECATED
AI_API_ENTRY
ai_handle ai_network_data_weights_get(void)
{
  static const ai_u8* const s_network_weights_map[1 + 2] = {
    AI_PTR(AI_MAGIC_MARKER),
    AI_PTR(s_network_weights_array_u64),
    AI_PTR(AI_MAGIC_MARKER)
  };

  return AI_HANDLE_PTR(s_network_weights_map);

}


/*!
 * @brief Get network params configuration data structure.
 * @ingroup network_data
 * @return true if a valid configuration is present, false otherwise
 */
AI_API_ENTRY
ai_bool ai_network_data_params_get(ai_handle network, ai_network_params* params)
{
  if (!(network && params)) return false;
  
  static ai_buffer s_network_data_map_activations[AI_NETWORK_DATA_ACTIVATIONS_COUNT] = {
    AI_BUFFER_OBJ_INIT(AI_BUFFER_FORMAT_U8, 1, 1, AI_NETWORK_DATA_ACTIVATIONS_SIZE, 1, NULL)
  };

  const ai_buffer_array map_activations = 
    AI_BUFFER_ARRAY_OBJ_INIT(AI_FLAG_NONE, AI_NETWORK_DATA_ACTIVATIONS_COUNT, s_network_data_map_activations);
  
  static ai_buffer s_network_data_map_weights[AI_NETWORK_DATA_WEIGHTS_COUNT] = {
    AI_BUFFER_OBJ_INIT(AI_BUFFER_FORMAT_U8, 1, 1, 29584, 1, s_network_weights_array_u64),
    
  };

  const ai_buffer_array map_weights = 
    AI_BUFFER_ARRAY_OBJ_INIT(AI_FLAG_NONE, AI_NETWORK_DATA_WEIGHTS_COUNT, s_network_data_map_weights);

  return ai_platform_bind_network_params(network, params, &map_weights, &map_activations);
}


AI_API_DECLARE_END
